{"##bbon": 27684, "stocks": 15768, "karen": 8129, "popping": 20095, "torpedo": 9862, "tricky": 24026, "rare": 4678, "priscilla": 25193, "##hot": 12326, "1795": 13397, "##\u0627\u0646": 18511, "settings": 10906, "##ware": 8059, "accusations": 13519, "##eno": 16515, "##week": 28075, "autopsy": 24534, "citizens": 4480, "fists": 10006, "##ru": 6820, "judas": 25326, "scratches": 25980, "archway": 28189, "##walk": 17122, "dared": 15048, "230": 11816, "orphanage": 18504, "tilt": 17010, "pardon": 14933, "according": 2429, "claremont": 23716, "##tology": 23479, "shuffled": 18764, "##\u5834": 30332, "60th": 20928, "fitzroy": 21870, "styles": 6782, "struggled": 6915, "bid": 7226, "stream": 5460, "tomatoes": 12851, "commando": 15054, "glowed": 16497, "nomenclature": 23718, "whimpered": 26184, "hallway": 6797, "##dda": 25062, "##leader": 19000, "##linson": 25051, "##bola": 24290, "medieval": 5781, "organist": 16397, "illegally": 17800, "routes": 5847, "yugoslavia": 8936, "initiation": 17890, "##vina": 17948, "karel": 28021, "##\u2194": 30115, "armies": 8749, "encourages": 16171, "africans": 18076, "soothe": 28384, "wardrobe": 17828, "pioneering": 13280, "##jee": 16963, "\u5f73": 1845, "verdict": 14392, "##amps": 25167, "josie": 15293, "pods": 26723, "seminole": 28909, "become": 2468, "instant": 7107, "\u1175": 1483, "conservatives": 11992, "guides": 12468, "##color": 18717, "\u11ab": 1485, "##rup": 21531, "stations": 3703, "##gau": 20420, "joker": 19318, "denim": 26762, "berry": 10498, "photographs": 7008, "wehrmacht": 23443, "##lifting": 26644, "download": 8816, "fever": 9016, "hampton": 11615, "fresno": 20840, "duties": 5704, "breaststroke": 28164, "disciplined": 28675, "timothy": 10805, "outset": 26674, "##aceae": 18339, "aside": 4998, "promptly": 13364, "nasa": 9274, "jiang": 20613, "obligation": 14987, "##ages": 13923, "[unused392]": 397, "dressing": 11225, "billed": 14843, "roadway": 18799, "\u266d": 1627, "##ants": 11390, "178": 19289, "rice": 5785, "youngest": 6587, "committee": 2837, "75th": 25092, "mock": 12934, "shadowy": 22801, "resurgence": 26303, "1830": 9500, "calvert": 24800, "##34": 22022, "sold": 2853, "##alla": 25425, "\u826f": 1938, "cent": 9358, "##xt": 18413, "immortality": 20107, "##hol": 14854, "concert": 4164, "reactors": 22223, "##yler": 20853, "##\u25aa": 30145, "\u5730": 1802, "alla": 25699, "\u1da0": 1512, "amazon": 9733, "subjected": 13532, "##fb": 26337, "gender": 5907, "##leen": 24129, "hissed": 11402, "##nac": 18357, "size": 2946, "receipt": 24306, "event": 2724, "jose": 4560, "serene": 25388, "bbc": 4035, "thrive": 25220, "mood": 6888, "automated": 12978, "samples": 8168, "hounds": 27772, "[unused329]": 334, "inference": 28937, "flame": 8457, "shallow": 8467, "##js": 22578, "phenomenon": 9575, "salty": 23592, "doubles": 7695, "duke": 3804, "wholly": 12590, "swimmers": 21669, "##more": 5974, "caf": 24689, "##\u2097": 30095, "camps": 7958, "##rice": 17599, "c": 1039, "angles": 12113, "[unused5]": 6, "massachusetts": 4404, "##\u044e": 29757, "featuring": 3794, "ecology": 13517, "##fting": 26169, "karin": 24537, "##girl": 15239, "stripe": 18247, "woods": 5249, "tumors": 21434, "##urer": 27595, "passages": 13768, "transgender": 16824, "builders": 16472, "##sum": 17421, "[unused177]": 182, "secession": 22965, "drip": 27304, "muriel": 27616, "doc": 9986, "palaces": 22763, "hanover": 14393, "specifications": 15480, "[unused694]": 699, "[unused883]": 888, "per": 2566, "[unused227]": 232, "triassic": 29529, "granting": 15080, "altering": 22552, "quo": 22035, "an": 2019, "[unused879]": 884, "aberdeen": 12080, "bothered": 11250, "1920": 4444, "mouthed": 20521, "byron": 12234, "neighbourhoods": 27535, "##\u05e4": 29807, "##oke": 11045, "hermit": 24308, "bottle": 5835, "dundee": 14252, "bela": 20252, "villain": 12700, "domes": 26193, "opposing": 10078, "kidnap": 22590, "divide": 11443, "freshmen": 26612, "looked": 2246, "riverside": 12497, "comprising": 9605, "mild": 10256, "entertained": 21474, "##nostic": 28199, "putnam": 20230, "222": 19015, "omaha": 12864, "sobbed": 25960, "dealers": 16743, "trench": 14185, "cisco": 26408, "##offs": 27475, "incorporate": 13265, "##anus": 20849, "kinship": 27866, "cornice": 27848, "magnitude": 10194, "salts": 23480, "valencia": 13083, "treacherous": 26648, "voice": 2376, "410": 19151, "whitney": 9809, "##hana": 15788, "vijay": 17027, "proposing": 21991, "##torium": 24390, "below": 2917, "herbert": 7253, "closes": 14572, "intelligent": 9414, "##ifying": 11787, "filed": 6406, "depths": 11143, "gin": 18353, "dialed": 21300, "hellenic": 23122, "bayer": 26367, "garcia": 7439, "cruelty": 18186, "mn": 24098, "[unused22]": 23, "phrase": 7655, "posed": 13686, "had": 2018, "consecration": 24730, "severn": 24753, "universally": 21186, "mixes": 21109, "[unused957]": 962, "adaptive": 19293, "koppen": 20139, "\u961d": 1970, "arrived": 3369, "explained": 4541, "olympics": 3783, "decomposition": 22511, "overly": 15241, "july": 2251, "later": 2101, "[unused312]": 317, "fulbright": 26695, "wildcats": 19495, "405": 23988, "middlesex": 13654, "confessions": 21444, "resort": 7001, "\u0261": 1116, "afternoons": 24738, "turk": 22883, "##erted": 28728, "\u0932": 1334, "waterways": 21938, "##hl": 7317, "infinity": 15579, "microsoft": 7513, "gaping": 21226, "retorted": 24056, "tractors": 28292, "##lav": 14973, "\u0635": 1284, "guard": 3457, "stalker": 23883, "##uber": 21436, "shattering": 21797, "faye": 19243, "vinnie": 24214, "grades": 7022, "##jet": 15759, "##35": 19481, "productions": 5453, "cochran": 28506, "\u52a0": 1779, "come": 2272, "beetle": 7813, "glory": 8294, "batting": 9640, "ads": 14997, "like": 2066, "production": 2537, "flirt": 27978, "gallant": 26984, "grasp": 10616, "relied": 13538, "poetic": 13805, "dept": 29466, "translit": 28468, "fia": 19807, "fore": 18921, "matt": 4717, "assistance": 5375, "developer": 9722, "##ation": 3370, "loch": 14941, "shawn": 13218, "tomato": 20856, "##\u3055": 30182, "##stown": 13731, "##ud": 6784, "byte": 24880, "detail": 6987, "grains": 17588, "michaels": 17784, "##fles": 28331, "responsive": 26651, "##yat": 26139, "beau": 17935, "prefers": 19233, "constitutional": 6543, "\u4f1a": 1763, "marched": 9847, "reggie": 17963, "monk": 8284, "##ricting": 28827, "folding": 12745, "colored": 6910, "##isance": 28138, "##etto": 20082, "##xley": 20959, "viewer": 13972, "##lier": 14355, "sins": 15516, "##ano": 6761, "burnham": 25295, "##pher": 27921, "[unused425]": 430, "##ience": 13684, "distinctive": 8200, "##enne": 24336, "##\u300d": 30168, "mall": 6670, "mercury": 8714, "ranking": 5464, "##row": 10524, "munro": 20923, "##\u30ad": 30227, "boundaries": 7372, "blocked": 8534, "violations": 13302, "##14": 16932, "equipped": 6055, "##yuan": 17236, "warlock": 28861, "jar": 15723, "cooled": 12981, "cornerback": 26857, "receive": 4374, "[unused732]": 737, "deformation": 29130, "tighten": 21245, "martial": 7761, "gee": 20277, "##lok": 29027, "mortality": 13356, "1808": 13040, "depicting": 10775, "##inate": 14776, "##uttered": 23128, "##\uff08": 30513, "[unused772]": 777, "rat": 9350, "crows": 21623, "##\u5fc4": 30376, "props": 24387, "##\u0294": 29705, "severely": 8949, "marcia": 22548, "interlude": 25347, "falcons": 14929, "telecom": 18126, "##kell": 18690, "##storm": 19718, "but": 2021, "ndp": 21915, "wrinkled": 15968, "regeneration": 20045, "carmen": 11425, "depictions": 20818, "solvent": 23735, "note": 3602, "fujian": 29551, "reside": 13960, "tenderly": 26596, "##phi": 21850, "theories": 8106, "australians": 15739, "marriage": 3510, "wards": 11682, "fleeting": 25085, "unanimous": 13604, "campaigns": 8008, "fortification": 23050, "takeover": 15336, "instrumentation": 16015, "##weight": 11179, "expanded": 4423, "princes": 12000, "inmates": 13187, "inauguration": 17331, "##tama": 28282, "[unused492]": 497, "researching": 20059, "cakes": 22619, "##ian": 2937, "naples": 10553, "prophecy": 14951, "nearest": 7205, "jewish": 3644, "##\u963f": 30497, "dissolved": 8314, "nuremberg": 19346, "##wled": 28365, "schizophrenia": 23683, "inhibit": 26402, "screams": 11652, "vi": 6819, "daddy": 8600, "zimmerman": 27946, "terminal": 5536, "sharma": 14654, "blaze": 15347, "1956": 3838, "bisexual": 22437, "##kian": 28545, "poisoning": 16149, "moran": 17866, "##tlement": 24007, "dispute": 7593, "\u09a8": 1366, "nomination": 6488, "##jin": 14642, "proteins": 8171, "aperture": 18892, "haunting": 20161, "supervise": 28589, "watts": 11042, "julie": 7628, "purple": 6379, "speaks": 8847, "##cio": 9793, "##val": 10175, "\u0576": 1231, "failure": 4945, "monty": 18446, "scraped": 20378, "substitutes": 29200, "toe": 11756, "[unused803]": 808, "##mt": 20492, "possess": 10295, "moses": 9952, "til": 18681, "##tail": 14162, "internationale": 21339, "dignity": 13372, "[unused72]": 73, "drugs": 5850, "##isation": 6648, "##door": 23835, "##\u3002": 30162, "stilled": 22791, "personnel": 5073, "tourist": 7538, "##yev": 17240, "mecklenburg": 22007, "##low": 8261, "mocked": 24195, "##vale": 17479, "vocabulary": 16188, "naturally": 8100, "sworn": 10741, "lyric": 13677, "##aus": 20559, "mornings": 16956, "bonnie": 12220, "pictured": 15885, "westwood": 21730, "vested": 26003, "tremor": 27734, "mistress": 10414, "##pped": 11469, "sp": 11867, "[unused728]": 733, "##qu": 28940, "senior": 3026, "\u060c": 1268, "forged": 16158, "##raj": 14220, "##\u03c7": 29737, "sultan": 7544, "[unused571]": 576, "towards": 2875, "juliana": 24157, "##\u0f58": 29968, "bets": 29475, "\u09b6": 1374, "entertain": 20432, "drone": 18465, "resemblance": 14062, "##11": 14526, "planner": 24555, "##ptive": 24971, "marriott": 26490, "##ener": 24454, "dakota": 7734, "expands": 24545, "healer": 19783, "mediterranean": 7095, "academics": 15032, "culminating": 16979, "sonia": 16244, "plastic": 6081, "1780": 15051, "turkmenistan": 25432, "##gizing": 28660, "imam": 17189, "mrna": 28848, "complexion": 28838, "serbian": 6514, "##nant": 16885, "##itor": 15660, "hip": 5099, "offences": 18421, "precedence": 23359, "[unused639]": 644, "creole": 21414, "doctor": 3460, "##ential": 24271, "shoot": 5607, "primetime": 18474, "beams": 13110, "chromosome": 16706, "177": 18118, "##anda": 13832, "##ials": 26340, "\u0e01": 1409, "crimea": 21516, "generator": 13103, "\u043f": 1194, "choreography": 16967, "driving": 4439, "cbc": 13581, "watering": 25813, "##rou": 22494, "##ea": 5243, "##ics": 6558, "alvin": 17348, "journals": 9263, "kung": 18577, "spend": 5247, "slowed": 9784, "shelley": 15828, "##pt": 13876, "##tina": 13770, "abdominal": 21419, "##cycle": 23490, "##\u76ee": 30444, "obama": 8112, "##grant": 18980, "entertainer": 21751, "\u06c1": 1308, "noisy": 20810, "##\u0272": 29689, "sorting": 22210, "october": 2255, "knockout": 11369, "seduce": 23199, "##pired": 21649, "sweaty": 19889, "[unused264]": 269, "tn": 28286, "##nging": 22373, "##wicz": 21355, "prevention": 9740, "convey": 16636, "daughters": 5727, "kidding": 12489, "benji": 27231, "drew": 3881, "##gling": 18483, "small": 2235, "authorization": 20104, "briefs": 28760, "##lot": 10994, "rags": 26346, "[unused64]": 65, "vines": 16702, "inspire": 18708, "foundation": 3192, "muse": 18437, "vibrating": 24987, "laws": 4277, "municipal": 4546, "##orin": 28741, "bruised": 18618, "korean": 4759, "antoinette": 28429, "tricks": 12225, "naomi": 12806, "##si": 5332, "intersections": 26540, "transformations": 21865, "[unused908]": 913, "sbs": 21342, "lexi": 16105, "doris": 15467, "produce": 3965, "emmy": 10096, "objection": 22224, "equestrian": 19191, "spain": 3577, "ton": 10228, "trainer": 10365, "bryn": 19904, "##\u30a2": 30219, "fifth": 3587, "tenant": 16713, "##\u53f2": 30316, "decker": 20946, "wise": 7968, "##rka": 22379, "magma": 28933, "theresa": 14781, "december": 2285, "boiled": 17020, "trapping": 22977, "classmate": 23175, "##ffs": 21807, "noticed": 4384, "vomiting": 24780, "##\u207f": 30080, "quarterfinal": 29380, "worldwide": 4969, "weight": 3635, "psychological": 8317, "mussolini": 22554, "privilege": 14293, "raked": 22438, "torah": 16297, "sanctioned": 14755, "\u09b2": 1373, "##mat": 18900, "emma": 5616, "46th": 27990, "rippled": 26862, "looks": 3504, "209": 19348, "docking": 25776, "marley": 20326, "garner": 18661, "torso": 15190, "##\u0283": 29696, "ripped": 9157, "distracted": 11116, "261": 24441, "pines": 17527, "crewe": 22188, "bowen": 16208, "blades": 10491, "ariel": 16126, "pointless": 23100, "barrow": 15355, "\u306d": 1670, "stakes": 7533, "paralympic": 17029, "##tten": 25970, "[unused677]": 682, "##\u961d": 30496, "wai": 23701, "##haven": 14650, "timer": 25309, "attention": 3086, "exports": 14338, "sacrament": 28958, "marrying": 13516, "poets": 9736, "muscular": 13472, "dragged": 7944, "##eric": 22420, "##sities": 24279, "validation": 27354, "missile": 7421, "approach": 3921, "pronouns": 26028, "brittany": 12686, "nov": 13292, "older": 3080, "zachary": 19474, "directs": 23303, "relation": 7189, "relies": 16803, "kappa": 16000, "##istan": 23137, "carts": 25568, "closet": 9346, "informally": 21858, "demands": 7670, "theme": 4323, "declaration": 8170, "\u79be": 1927, "##oft": 15794, "maximize": 25845, "kraft": 26680, "nonetheless": 9690, "independence": 4336, "##ties": 7368, "southampton": 11833, "##rba": 28483, "fbi": 8495, "assaults": 22664, "1941": 3874, "hometown": 9627, "shan": 17137, "##ka": 2912, "steps": 4084, "##iz": 10993, "ruthless": 18101, "lund": 21860, "1100": 22096, "turkic": 22926, "dialogues": 22580, "brooke": 11535, "newbury": 29457, "##zle": 29247, "chopped": 24881, "arrivals": 25470, "judiciary": 14814, "##\u5f35": 30370, "\uff09": 1988, "pet": 9004, "##berries": 20968, "walsh": 11019, "wc": 15868, "signalling": 21919, "escapes": 12976, "##coat": 16531, "mod": 16913, "##uddin": 17375, "reused": 26513, "1937": 4347, "smuggling": 19535, "deviation": 24353, "##ain": 8113, "skier": 21294, "down": 2091, "teamed": 12597, "##aba": 19736, "legions": 23269, "orchid": 15573, "heaving": 23907, "reflected": 7686, "36th": 21460, "##ulating": 10924, "##oped": 24174, "nationals": 10342, "##alic": 27072, "bumps": 18548, "beer": 5404, "\u110f": 1466, "aboriginal": 9757, "[unused539]": 544, "runners": 7190, "accusing": 16723, "##re": 2890, "blood": 2668, "[unused277]": 282, "##sha": 7377, "lexington": 14521, "\u0b95": 1382, "creamy": 24519, "shafts": 20542, "improves": 24840, "spicy": 25482, "devotion": 13347, "checks": 14148, "ugly": 9200, "##\u25cf": 30146, "caves": 10614, "motif": 16226, "##kou": 24861, "clarence": 11805, "pathogen": 26835, "##land": 3122, "confused": 5457, "##ffy": 16329, "gundam": 26152, "reliability": 15258, "polytechnic": 14466, "sighs": 19906, "adoptive": 24787, "frantically": 16460, "##piration": 16781, "##riders": 28116, "maureen": 19167, "##hism": 23108, "donor": 15009, "dragoons": 28069, "[unused652]": 657, "##llon": 22179, "utilizes": 21852, "arab": 5424, "dickinson": 17590, "##isi": 17417, "folded": 6999, "##e": 2063, "tow": 15805, "juniors": 16651, "mounds": 19503, "woodrow": 23954, "ja": 14855, "bucket": 13610, "detailed": 6851, "harrisburg": 24569, "173": 19410, "evolutionary": 12761, "rodents": 28156, "toro": 23790, "disappointment": 10520, "##ree": 9910, "absence": 6438, "##rag": 29181, "collections": 6407, "enfield": 25821, "respecting": 27818, "cancelled": 8014, "raoul": 22063, "800": 5385, "##\u5289": 30303, "toni": 16525, "##\u2016": 30054, "##movable": 25661, "bare": 6436, "jew": 16522, "mankind": 14938, "270": 13756, "spectator": 21027, "[unused49]": 50, "[unused974]": 979, "[unused348]": 353, "broadway": 5934, "universidad": 16501, "##sters": 15608, "shaggy": 25741, "savings": 10995, "chandler": 13814, "arenas": 26434, "##tro": 13181, "masters": 5972, "venetian": 15510, "roc": 21326, "nigel": 12829, "powerless": 25192, "ago": 3283, "##imus": 19315, "flickered": 15999, "librarian": 13850, "excerpt": 28142, "cicero": 23080, "287": 23090, "nickel": 15519, "]": 1033, "marries": 19941, "1849": 9037, "tuberculosis": 15877, "regression": 26237, "barges": 27712, "##\u06ba": 29843, "hash": 23325, "##ologists": 16886, "punt": 18975, "frustration": 9135, "nightmares": 15446, "encouraging": 11434, "nellie": 25365, "drank": 10749, "device": 5080, "tess": 15540, "darlington": 19667, "collapsing": 22724, "##hausen": 13062, "renovations": 15576, "\u2079": 1543, "##esses": 26636, "bao": 25945, "conservatoire": 29233, "cubs": 12469, "asked": 2356, "##ari": 8486, "discretion": 19258, "massive": 5294, "babylonian": 26990, "whip": 11473, "madly": 29179, "##inas": 15227, "cancellation": 16990, "\u3078": 1675, "reverse": 7901, "aires": 9149, "tanaka": 21829, "##rmin": 27512, "##sitor": 28307, "inherent": 16112, "##bic": 13592, "residues": 22644, "##\u00ae": 29656, "vulnerability": 18130, "island": 2479, "band": 2316, "psychiatric": 13691, "##00": 8889, "weekly": 4882, "physically": 8186, "chaotic": 19633, "institut": 17126, "rain": 4542, "prix": 5431, "creature": 6492, "fucked": 21746, "sailed": 7434, "fortified": 13313, "augusta": 13635, "##ko": 3683, "##pping": 14853, "arrange": 13621, "##thorpe": 22398, "brooding": 28902, "duffy": 17971, "exercises": 11110, "else": 2842, "larry": 6554, "##ini": 5498, "the": 1996, "dl": 21469, "reuters": 26665, "dynamic": 8790, "protocols": 16744, "hey": 4931, "stable": 6540, "clinic": 9349, "stud": 16054, "##rone": 20793, "merging": 16468, "betsy": 22396, "clinched": 18311, "##p": 2361, "artery": 16749, "rift": 16931, "jihad": 24815, "supervised": 13588, "equations": 11380, "alf": 24493, "signage": 29404, "jericho": 17309, "are": 2024, "rude": 12726, "moshe": 27123, "7": 1021, "##\u0438": 10325, "prostitutes": 20833, "shutter": 28180, "##gree": 28637, "265": 20549, "intricate": 17796, "pig": 10369, "duc": 26363, "predator": 15267, "swarm": 21708, "provinces": 6941, "identified": 4453, "actresses": 19910, "paired": 12739, "##urities": 29366, "accurately": 14125, "##psy": 18075, "patterned": 25336, "shivered": 13927, "kimball": 26659, "##lux": 25148, "saskatchewan": 10068, "halfway": 8576, "[unused452]": 457, "cong": 26478, "admission": 9634, "slope": 9663, "wheat": 10500, "\u8eca": 1954, "markings": 13967, "releases": 7085, "glad": 5580, "lc": 29215, "frazier": 26551, "hesitant": 20221, "alteration": 26014, "address": 4769, "greta": 26111, "jasper": 14791, "##\u8033": 30463, "suppressed": 13712, "shout": 11245, "monitoring": 8822, "werewolves": 18306, "sean": 5977, "ascension": 18071, "[unused168]": 173, "##bill": 24457, "frogs": 17582, "530": 23523, "overcame": 26463, "cleanup": 27686, "toxicity": 22423, "adventist": 25696, "atlas": 11568, "elemental": 19529, "velvet": 10966, "excelled": 23081, "afterlife": 25115, "##link": 13767, "optical": 9380, "keane": 27228, "ellis": 8547, "mack": 11349, "avoidance": 24685, "##3d": 29097, "wizards": 16657, "new": 2047, "russian": 2845, "1952": 3999, "configuration": 9563, "autobiography": 10828, "coma": 16571, "isaiah": 18850, "dusk": 18406, "##peration": 29487, "shipyard": 13858, "frame": 4853, "##oxide": 28479, "pearls": 21944, "unharmed": 28150, "riots": 12925, "worked": 2499, "ruined": 9868, "can": 2064, "ptolemy": 23517, "pc": 7473, "minimum": 6263, "10th": 6049, "warwick": 13283, "smooth": 5744, "[unused214]": 219, "racecourse": 15948, "##rix": 17682, "vibrations": 22755, "skirmish": 27264, "coil": 17085, "\u8a9e": 1950, "blessings": 24618, "welcome": 6160, "subjects": 5739, "##tland": 19270, "christian": 3017, "sketch": 11080, "supplemented": 20585, "##rained": 27361, "##;": 29628, "graduated": 3852, "disastrous": 16775, "chapters": 9159, "selfish": 14337, "hostilities": 17601, "grossed": 17500, "trunk": 8260, "aria": 9342, "articulated": 20742, "pulling": 4815, "directions": 7826, "pledged": 16970, "##\u10da": 29983, "[unused460]": 465, "\u3048": 1649, "##pf": 14376, "##\u7248": 30433, "##bial": 21102, "carp": 29267, "1997": 2722, "gods": 5932, "##rked": 19849, "##gnon": 26977, "##wala": 23877, "bel": 19337, "braking": 24427, "happen": 4148, "talent": 5848, "booming": 24716, "alive": 4142, "##ogist": 22522, "counts": 9294, "chromosomes": 26874, "reid": 9027, "dalai": 28511, "rosario": 17496, "diego": 5277, "macedonia": 11492, "regarded": 5240, "lever": 15929, "effectiveness": 12353, "recalled": 7383, "williamson": 14333, "unpredictable": 21446, "246": 22376, "##fy": 12031, "##inga": 28234, "prisoner": 7267, "[unused325]": 330, "violin": 6710, "bala": 21451, "slapping": 22021, "##trick": 22881, "medici": 22605, "selected": 3479, "ordeal": 23304, "governmental": 10605, "twilight": 13132, "horsepower": 15149, "1787": 16057, "rebounds": 11049, "fates": 26417, "minimize": 18478, "##lle": 6216, "liberation": 7931, "slick": 13554, "##crat": 23185, "differential": 11658, "1840s": 19308, "carrot": 25659, "lettering": 25782, "motive": 15793, "clearer": 24509, "wall": 2813, "nearer": 20388, "2019": 10476, "jeans": 6312, "erik": 10240, "bring": 3288, "[unused906]": 911, "attracts": 17771, "##orth": 28610, "cherry": 9115, "workshop": 8395, "arguing": 9177, "ancestor": 13032, "\u0989": 1350, "gubernatorial": 19100, "incentives": 21134, "orchestral": 13533, "##igate": 28731, "shuffling": 24770, "seton": 28796, "baha": 13253, "##\u00b0": 7737, "unemployed": 18787, "centrally": 25497, "severe": 5729, "relax": 9483, "[unused234]": 239, "infiltrate": 29543, "manage": 6133, "pulmonary": 21908, "[unused960]": 965, "knuckles": 13513, "coined": 13279, "##lce": 23314, "portray": 17279, "patrols": 14703, "inn": 7601, "##tructing": 26310, "slumped": 14319, "pulsing": 23139, "parapet": 27372, "tremble": 20627, "frescoes": 23360, "dynasty": 5321, "partial": 7704, "##lock": 7878, "http": 8299, "nightclub": 15479, "centenary": 17705, "kris": 19031, "resistant": 13070, "boating": 23639, "calculating": 20177, "rory": 14285, "##ield": 12891, "reserve": 3914, "turquoise": 28653, "racers": 25791, "countess": 11716, "origins": 7321, "jain": 17136, "tony": 4116, "meyrick": 15228, "contribute": 9002, "##aq": 20784, "formulas": 25814, "pathway": 12732, "demise": 13614, "clinics": 17865, "##ivate": 21466, "pattern": 5418, "artisans": 26818, "gypsy": 16006, "win": 2663, "\u5c71": 1831, "ewing": 24023, "demeanor": 21745, "stages": 5711, "dharma": 20669, "visual": 5107, "attempting": 7161, "amplified": 26986, "\u305f": 1661, "adored": 28456, "jaime": 14519, "thru": 27046, "failing": 7989, "roster": 9238, "decide": 5630, "##hend": 22342, "tropical": 5133, "notified": 19488, "swans": 26699, "net": 5658, "strands": 14119, "jagged": 18187, "##\u00fe": 29670, "##ered": 6850, "[unused615]": 620, "courses": 5352, "[unused337]": 342, "\u0915": 1315, "legislative": 4884, "providence": 11293, "##lu": 7630, "jong": 18528, "archduke": 27463, "rhyme": 20622, "##ia": 2401, "spike": 9997, "[unused658]": 663, "defect": 21262, "##mable": 24088, "feel": 2514, "zionist": 21379, "joked": 19700, "closely": 4876, "##sett": 21678, "tapestry": 25213, "fai": 26208, "gonzalez": 10121, "story": 2466, "##med": 7583, "[unused505]": 510, "[unused255]": 260, "eddie": 5752, "##ular": 7934, "chloe": 9318, "timely": 23259, "integrating": 22380, "barclay": 23724, "wal": 24547, "##ater": 24932, "plain": 5810, "[unused926]": 931, "disabled": 9776, "cell": 3526, "coastline": 15458, "calculation": 17208, "##text": 18209, "hostel": 21071, "spears": 13957, "clancy": 24530, "nevertheless": 6600, "##\u6a39": 30410, "##rier": 16252, "marlene": 26921, "##mum": 27147, "322": 23768, "hinted": 21795, "elegant": 11552, "marvin": 13748, "lattice": 17779, "[unused300]": 305, "shop": 4497, "##cht": 10143, "##coming": 18935, "pedersen": 27409, "##icides": 22698, "obscured": 23649, "increasing": 4852, "[unused830]": 835, "advisor": 8619, "due": 2349, "anterior": 15099, "glasses": 7877, "periods": 6993, "castle": 3317, "accommodate": 8752, "demo": 9703, "showered": 23973, "seven": 2698, "playoff": 7808, "scorer": 10835, "bicycle": 10165, "printer": 15041, "refrain": 20703, "alba": 18255, "##otte": 28495, "parma": 19177, "mayer": 14687, "mckenzie": 18506, "pulse": 8187, "superman": 10646, "##cing": 6129, "televised": 13762, "qualifiers": 18956, "forcibly": 20951, "kerry": 11260, "theater": 4258, "kathleen": 14559, "##\u30e5": 30255, "##\u091a": 29854, "generosity": 26161, "\u099c": 1358, "linden": 22066, "[unused238]": 243, "brightly": 14224, "##\u30e3": 30254, "skiing": 12701, "correct": 6149, "##sian": 17043, "tuned": 15757, "portrait": 6533, "cactus": 23265, "hunt": 5690, "##usion": 14499, "##\u0906": 29848, "true": 2995, "yours": 6737, "##eca": 19281, "warships": 15964, "##sai": 15816, "##|": 29641, "hot": 2980, "sufficient": 7182, "declaring": 13752, "parameter": 16381, "wealthy": 7272, "collegiate": 9234, "reduced": 4359, "handles": 16024, "##tore": 19277, "##dham": 17661, "##bha": 22655, "klan": 26613, "##mbling": 29256, "exciting": 10990, "tests": 5852, "denotes": 14796, "charting": 17918, "builder": 12508, "interior": 4592, "manifold": 19726, "numb": 15903, "720": 22857, "altitude": 7998, "[unused420]": 425, "thrusting": 21468, "268": 25143, "##pur": 5311, "robot": 8957, "anytime": 15933, "twitch": 19435, "tours": 7562, "##fen": 18940, "drafting": 21168, "paste": 19351, "guiana": 23568, "gwen": 11697, "\u10d0": 1438, "##raction": 25533, "##enes": 28553, "##tlan": 28922, "blooded": 26064, "##igh": 18377, "loaded": 8209, "patented": 16719, "loosely": 11853, "motionless": 19917, "zoe": 11199, "##biology": 21685, "verb": 12034, "indy": 18214, "canceled": 13261, "toyota": 11742, "dislike": 18959, "351": 28474, "illustrator": 13825, "hammer": 8691, "agreement": 3820, "reject": 15454, "reddy": 18998, "##stock": 14758, "restraining": 28285, "physiology": 16127, "##ta": 2696, "##\u5b9a": 30348, "baseball": 3598, "taluka": 29512, "coyotes": 26880, "compares": 22963, "discontinued": 8944, "pilots": 8221, "makeshift": 19368, "square": 2675, "musica": 21137, "qualified": 4591, "\u0ba8": 1386, "##dium": 12811, "maverick": 27187, "##\u0989": 29886, "##aceous": 25560, "mira": 18062, "[unused431]": 436, "experienced": 5281, "tokugawa": 22065, "##ropolis": 23248, "wealth": 7177, "theorem": 9872, "fu": 11865, "angle": 6466, "nationalist": 8986, "##rino": 17815, "##head": 4974, "mandal": 24373, "##\u897f": 30473, "collect": 8145, "colossal": 29523, "amusing": 19142, "dome": 8514, "\u092a": 1328, "##17": 16576, "dutch": 3803, "##time": 7292, "prank": 26418, "radioactive": 17669, "1746": 24507, "excellence": 8012, "clubhouse": 22067, "##iri": 15735, "##hman": 13890, "potato": 14557, "mina": 19808, "brawl": 23244, "robb": 26211, "physician": 7522, "1965": 3551, "routine": 9410, "boost": 12992, "postgraduate": 15438, "##opsis": 22599, "##iously": 19426, "elsewhere": 6974, "reared": 23295, "konrad": 22958, "staunch": 26355, "##ned": 7228, "[unused286]": 291, "wichita": 18614, "solos": 24339, "osaka": 13000, "[unused212]": 217, "oblivious": 18333, "louvre": 25110, "##\u0561": 29766, "[unused381]": 386, "certified": 7378, "2000s": 8876, "los": 3050, "[unused15]": 16, "iran": 4238, "76": 6146, "immense": 14269, "deleted": 17159, "york": 2259, "denmark": 5842, "teenager": 10563, "semantic": 21641, "##jong": 21958, "network": 2897, "##erate": 22139, "graders": 23256, "homosexual": 15667, "parody": 12354, "therese": 25598, "directorial": 21635, "horror": 5469, "commentary": 8570, "basins": 22739, "soluble": 24345, "##'": 29618, "bournemouth": 22882, "boston": 3731, "affiliated": 6989, "nylon": 27201, "recaptured": 23838, "##ngo": 16656, "kissed": 4782, "ngos": 22165, "##\u6728": 30401, "presenter": 10044, "hirsch": 28127, "pseudonym": 13881, "miniature": 12973, "##coe": 16288, "rn": 29300, "invented": 8826, "##eve": 18697, "buick": 28865, "nuts": 12264, "traffic": 4026, "nt": 23961, "condition": 4650, "wicked": 10433, "##kker": 23793, "##eg": 13910, "harvested": 22629, "oil": 3514, "coasts": 20266, "##vies": 25929, "exhibits": 10637, "[unused386]": 391, "ithaca": 27939, "arms": 2608, "gloucester": 13370, "##cious": 18436, "canvas": 10683, "##ace": 10732, "commitment": 8426, "1922": 4798, "communities": 4279, "##dication": 25027, "impoverished": 25488, "crushed": 10560, "loose": 6065, "##uron": 21017, "intensity": 8015, "##yama": 11613, "tipperary": 17333, "barbarian": 25075, "[unused16]": 17, "hindwings": 15998, "sabre": 22002, "##\u3082": 30207, "assassin": 12025, "##4": 2549, "melancholy": 22247, "katrina": 16864, "grandson": 7631, "flowing": 8577, "##iva": 11444, "tee": 17170, "##mora": 22122, "##\u624c": 30385, "##ex": 10288, "trusted": 9480, "mimi": 20705, "aba": 19557, "cardboard": 19747, "renewal": 14524, "233": 22115, "broadcast": 3743, "wen": 19181, "showing": 4760, "stripped": 10040, "##script": 22483, "##iste": 27870, "righteous": 19556, "##lift": 18412, "whom": 3183, "enrique": 15769, "howl": 22912, "church": 2277, "\u3072": 1673, "scraping": 23704, "nouveau": 25272, "chalmers": 29069, "processing": 6364, "scenario": 11967, "##isman": 20257, "divisional": 14167, "vernon": 11447, "##iere": 21253, "tanzania": 11959, "governments": 6867, "shooter": 13108, "hoop": 27669, "##gam": 22864, "##lars": 28695, "[unused892]": 897, "exported": 15612, "flush": 13862, "carmel": 19443, "framing": 20241, "##berry": 9766, "##eed": 13089, "immigrant": 11560, "glove": 15913, "ostensibly": 23734, "artefacts": 25762, "godzilla": 26631, "\u00be": 1093, "confident": 9657, "\u028b": 1133, "twitched": 16767, "##est": 4355, "everyone": 3071, "pennsylvania": 3552, "franco": 9341, "sensitivity": 14639, "paterson": 19162, "guaranteed": 12361, "airs": 14369, "[unused598]": 603, "##ppe": 21512, "yet": 2664, "tissues": 14095, "##arium": 17285, "ferrari": 13632, "rochdale": 26109, "##zin": 17168, "manually": 21118, "imperialism": 28087, "numerical": 15973, "1654": 27445, "##\u53e3": 30314, "[unused905]": 910, "brody": 19631, "tempo": 13657, "mater": 16289, "entrance": 4211, "dino": 22412, "##jk": 15992, "gambia": 26728, "virginity": 26970, "specific": 3563, "##\u201a": 30057, "schuster": 24253, "efficacy": 21150, "inside": 2503, "sensed": 10596, "sports": 2998, "##ytic": 21252, "audible": 19525, "volume": 3872, "tumbling": 21552, "center": 2415, "terminus": 7342, "##brush": 18623, "everywhere": 7249, "##ices": 23522, "humming": 20364, "##ods": 20620, "##dav": 29045, "iberian": 21988, "determined": 4340, "}": 1065, "1936": 4266, "romantic": 6298, "272": 24231, "\u7701": 1920, "seduction": 26962, "##heater": 27847, "palazzo": 18482, "additive": 29167, "~": 1066, "##fires": 26332, "\u3064": 1664, "banning": 21029, "luxembourg": 10765, "##bush": 22427, "develops": 11791, "accents": 24947, "##\u30d8": 30247, "##lp": 14277, "reflect": 8339, "mp3": 23378, "flip": 11238, "##\u04cf": 29765, "lowland": 15234, "telling": 4129, "imminent": 17566, "shareholders": 15337, "##dm": 22117, "drawn": 4567, "##ium": 5007, "sunk": 10417, "aide": 14895, "75": 4293, "##\u1019": 29973, "##claim": 25154, "astronomers": 26357, "garion": 12523, "##aru": 15728, "narrated": 17356, "employee": 7904, "##bis": 18477, "being": 2108, "1742": 25704, "##yeh": 25673, "##dicated": 26022, "braves": 13980, "solemn": 19487, "emerge": 12636, "rae": 14786, "billy": 5006, "giles": 13287, "swords": 10689, "rigid": 11841, "crossover": 16335, "quinn": 8804, "destroyed": 3908, "designation": 8259, "##park": 14432, "judd": 20128, "peak": 4672, "bond": 5416, "warner": 6654, "swindon": 22350, "##udi": 21041, "laid": 4201, "##hs": 7898, "##roid": 22943, "banda": 24112, "infamous": 14429, "renegade": 28463, "pristine": 27375, "cadillac": 20425, "reactor": 13308, "shepherd": 11133, "##odes": 19847, "coat": 5435, "polled": 26847, "assure": 14306, "acquired": 3734, "oldest": 4587, "commence": 22825, "plaques": 28487, "expired": 13735, "contractor": 13666, "whitish": 16800, "exponential": 27258, "\u5f18": 1843, "unions": 9209, "##rle": 20927, "##umatic": 25360, "##room": 9954, "##ysis": 20960, "jet": 6892, "martian": 20795, "demolition": 12451, "[unused681]": 686, "sustained": 8760, "nh": 18699, "\u5e73": 1839, "disposal": 13148, "awoke": 19179, "##\u02e4": 29719, "##bba": 22414, "liv": 22135, "diner": 15736, "lillian": 19344, "##ooped": 20671, "##\u2191": 30112, "chopra": 28826, "flood": 7186, "trigger": 9495, "integrity": 11109, "commemorating": 20646, "uncomfortably": 22502, "bullying": 18917, "bancroft": 29351, "containment": 29174, "conceptual": 17158, "existed": 5839, "lucifer": 24184, "maze": 15079, "[unused570]": 575, "broadcaster": 11995, "##trix": 29184, "\u52dd": 1780, "##zier": 21548, "ira": 11209, "##face": 12172, "climbing": 8218, "[unused321]": 326, "compatibility": 21778, "##rani": 21578, "canadiens": 21247, "newmarket": 22489, "teammates": 13220, "persuaded": 11766, "annoyance": 17466, "bilbao": 25427, "warrior": 6750, "southeast": 4643, "lone": 10459, "helping": 5094, "operate": 5452, "suggestions": 15690, "sprinted": 25156, "hypothetical": 25613, "segregation": 18771, "himalayan": 28333, "hesitation": 13431, "050": 28714, "##quet": 12647, "systemic": 22575, "pantry": 27796, "patient": 5776, "astronomy": 12799, "cola": 15270, "170": 10894, "##lding": 24573, "veterans": 8244, "upright": 10051, "hike": 21857, "az": 17207, "thumped": 28963, "##pine": 19265, "\u5fa1": 1847, "yue": 27163, "variants": 10176, "boris": 11235, "voss": 24878, "inflation": 14200, "mutiny": 19306, "modern": 2715, "din": 11586, "concepts": 8474, "stronger": 6428, "persecution": 14522, "cups": 10268, "[unused477]": 482, "jolt": 22538, "##\u266f": 30154, "##k": 2243, "werewolf": 12797, "##\u0915": 29851, "cooke": 16546, "rudolph": 18466, "##fk": 24316, "\u30a6": 1696, "##\u9752": 30501, "##bilities": 14680, "jumped": 5598, "roland": 8262, "apparatus": 14709, "##ipe": 15457, "chairperson": 19072, "hiroshima": 20168, "captained": 16041, "astor": 25159, "##hedral": 27310, "bash": 24234, "##tory": 7062, "casa": 14124, "mermaid": 22322, "lumpur": 17761, "defenders": 12534, "crouched": 14275, "sliced": 15920, "##\u043e": 14150, "territorial": 7894, "list": 2862, "language": 2653, "canon": 9330, "finest": 10418, "hours": 2847, "madonna": 11284, "balanced": 12042, "##\u5e78": 30367, "equilibrium": 14442, "want": 2215, "\u529b": 1778, "cyrillic": 15522, "brandon": 8825, "chairs": 8397, "fours": 23817, "cabbage": 28540, "gritted": 17307, "maximum": 4555, "wore": 5078, "huddled": 20258, "conform": 23758, "[unused123]": 128, "place": 2173, "lawsuits": 20543, "micro": 12702, "designers": 11216, "hollis": 27477, "##lary": 28221, "##emon": 26941, "overwhelmingly": 24783, "##bags": 26813, "##dar": 7662, "travels": 7930, "##mins": 21266, "##ptic": 20746, "punk": 7196, "ned": 12311, "##itan": 25451, "fixed": 4964, "forbid": 27206, "stupidity": 28072, "126": 14010, "##tura": 27431, "decisive": 13079, "ragged": 14202, "jurisdictions": 17370, "frenzy": 21517, "loren": 28779, "##\u1d63": 30043, "limousine": 28012, "liberated": 19553, "metric": 12046, "##brand": 23544, "##\u0917": 29853, "##mute": 26746, "cheekbones": 27181, "maclean": 22528, "confines": 25722, "predictable": 21425, "##cast": 10526, "ignatius": 26841, "conductors": 23396, "loyola": 21580, "180": 8380, "caller": 20587, "##aby": 21275, "rink": 18416, "\u208a": 1557, "aqueduct": 24016, "fiery": 15443, "futures": 17795, "managers": 10489, "kick": 5926, "exploding": 20728, "loosened": 22456, "tres": 24403, "[unused382]": 387, "indication": 12407, "fa": 6904, "mutant": 15527, "helpless": 13346, "imp": 17727, "singh": 5960, "##fields": 15155, "brilliant": 8235, "[unused222]": 227, "##vocation": 19152, "distance": 3292, "##sts": 12837, "freight": 8441, "bo": 8945, "\u0459": 1215, "##ischen": 24488, "[unused878]": 883, "croydon": 21838, "\u2116": 1578, "management": 2968, "oaks": 13396, "soldiers": 3548, "##\u0647": 14157, "evans": 6473, "soft": 3730, "##\u5f73": 30371, "essendon": 25149, "##ays": 22916, "lao": 18805, "barack": 13857, "##cheon": 28099, "##bians": 26376, "salvador": 10582, "hundred": 3634, "tourism": 6813, "torres": 13101, "speakers": 7492, "areas": 2752, "##bina": 21114, "1983": 3172, "tips": 10247, "oclc": 12258, "advertisements": 14389, "regiment": 3483, "rowan": 14596, "alsace": 24922, "statue": 6231, "protect": 4047, "##graph": 14413, "unbeaten": 20458, "blazing": 17162, "exposure": 7524, "remote": 6556, "conscious": 9715, "levi": 11902, "forgetting": 17693, "edouard": 21627, "astro": 28625, "##uga": 16377, "carmine": 18791, "fulfilling": 21570, "[unused17]": 18, "cumberland": 12310, "fingered": 28842, "##num": 19172, "##rrick": 24999, "operated": 3498, "gross": 7977, "44th": 26409, "melodic": 17187, "##uration": 18924, "chad": 9796, "forestry": 13116, "1990s": 4134, "##owing": 14138, "##ic": 2594, "transmitting": 23820, "darkening": 27862, "##lf": 10270, "scarf": 18982, "[unused723]": 728, "such": 2107, "forts": 15421, "knighted": 19572, "devote": 23313, "consists": 3774, "cemeteries": 20973, "childish": 24282, "receipts": 28258, "tan": 9092, "digital": 3617, "[unused722]": 727, "yerevan": 23383, "\u306c": 1669, "el": 3449, "##hu": 6979, "fictional": 7214, "imaginary": 15344, "vernacular": 18485, "uneven": 17837, "outing": 26256, "clothes": 4253, "transmission": 6726, "\u03c8": 1178, "collaborate": 20880, "foxes": 24623, "onion": 20949, "proving": 13946, "hines": 25445, "##udence": 29424, "albeit": 12167, "##py": 7685, "goat": 13555, "##rda": 13639, "##cine": 16567, "register": 4236, "supper": 15264, "##\u00df": 19310, "craig": 7010, "fought": 4061, "1986": 3069, "cambridge": 4729, "basically": 10468, "registered": 5068, "sumatra": 18262, "##bruck": 28985, "accredited": 11459, "[unused152]": 157, "blanchard": 26870, "wellesley": 25658, "box": 3482, "##vary": 21639, "arsenal": 9433, "chord": 13924, "cats": 8870, "showcasing": 27696, "##\u0935": 29871, "peeking": 28222, "##git": 23806, "salisbury": 13817, "retail": 7027, "bandit": 25334, "skyscraper": 24581, "332": 29327, "user": 5310, "systems": 3001, "bile": 23974, "kettle": 22421, "willed": 22705, "ki": 11382, "speedy": 26203, "idaho": 9795, "##lessness": 24913, "\u02b7": 1143, "highest": 3284, "collaborative": 12317, "humiliated": 26608, "dimly": 25361, "\u6708": 1872, "prime": 3539, "##rol": 13153, "##ture": 11244, "##cross": 16458, "extremes": 28800, "training": 2731, "tao": 20216, "##\u5cf6": 30359, "##\u0f0b": 29960, "1977": 3355, "interested": 4699, "periodically": 18043, "leapt": 13920, "clifton": 16271, "##\u0635": 29826, "secretaries": 23660, "convenience": 15106, "tram": 12517, "dairy": 11825, "gesellschaft": 27482, "1659": 28288, "searing": 25764, "##\u5143": 30295, "wills": 17234, "yank": 23178, "##\u22c5": 30141, "philippine": 7802, "##fighter": 20027, "costello": 21015, "player": 2447, "##iness": 9961, "larson": 21213, "filmfare": 25648, "1826": 11931, "liquor": 13207, "hopping": 26397, "caste": 14542, "##\u30de": 30249, "[unused385]": 390, "##\u2205": 30121, "tuna": 24799, "valued": 11126, "empress": 10248, "jerome": 11120, "##ears": 26492, "perhaps": 3383, "covered": 3139, "greatly": 6551, "washing": 12699, "rum": 19379, "designing": 12697, "banks": 5085, "sudan": 10411, "electronically": 28926, "november": 2281, "bounds": 19202, "##eland": 25689, "[unused760]": 765, "bank": 2924, "debris": 11385, "[unused821]": 826, "existing": 4493, "blackberry": 25935, "[unused322]": 327, "rents": 28206, "shirts": 11344, "trajectory": 22793, "##\u110a": 29998, "lashes": 16008, "[unused971]": 976, "foods": 9440, "##edging": 28002, "mcgee": 22034, "##hyllum": 27750, "##nk": 8950, "##act": 18908, "gains": 12154, "weighted": 18215, "trace": 7637, "bella": 12101, "leonid": 27316, "\u662d": 1868, "elevations": 18166, "ropes": 14607, "##sley": 8002, "ami": 26445, "sideways": 12579, "pools": 12679, "spatial": 13589, "fetal": 25972, "polls": 14592, "molina": 25601, "rightful": 27167, "\u677e": 1880, "##\u1111": 30004, "virus": 7865, "min": 8117, "finds": 4858, "collecting": 9334, "supervisors": 22565, "[unused627]": 632, "##mise": 28732, "[unused180]": 185, "manual": 6410, "moss": 10636, "singles": 3895, "squealed": 26175, "[unused467]": 472, "cross": 2892, "saloon": 17078, "wraps": 19735, "\u0561": 1219, "quadrant": 29371, "weaving": 15360, "##32": 16703, "06": 5757, "dilemma": 21883, "##uet": 23361, "entrepreneur": 10670, "accurate": 8321, "[unused814]": 819, "##mba": 11201, "remake": 12661, "avant": 14815, "##garh": 13484, "supplying": 17731, "bishop": 3387, "centers": 6401, "arrested": 4727, "sensing": 13851, "pupils": 7391, "furry": 28662, "profound": 13769, "karachi": 15381, "##lton": 13947, "levin": 20206, "triggered": 13330, "guide": 5009, "apostle": 20121, "slovak": 12747, "##7th": 27506, "giro": 19226, "apparent": 6835, "##\u2071": 30072, "leading": 2877, "preceding": 11003, "wound": 6357, "clare": 11152, "syed": 19740, "##thy": 16921, "toward": 2646, "gun": 3282, "##ning": 5582, "option": 5724, "solve": 9611, "genesis": 11046, "negro": 12593, "gloss": 27068, "graveyard": 16685, "\u044c": 1207, "routing": 16972, "neglect": 19046, "cigar": 19135, "vital": 8995, "taunton": 28181, "ridiculous": 9951, "[unused543]": 548, "\u201a": 1522, "implying": 20242, "shrink": 22802, "placement": 11073, "neutron": 20393, "brace": 17180, "[unused963]": 968, "memory": 3638, "petit": 17268, "cadet": 12738, "editing": 9260, "few": 2261, "attracting": 15411, "kong": 4290, "##ntly": 20630, "poem": 5961, "principles": 6481, "tore": 9538, "cared": 8725, "brigade": 4250, "viva": 20022, "hugs": 24459, "strategy": 5656, "agricultural": 4910, "commit": 10797, "311": 23532, "reinforcement": 23895, "tech": 6627, "regime": 6939, "stupid": 5236, "black": 2304, "counted": 8897, "smelled": 9557, "fiddle": 15888, "conflict": 4736, "emotions": 6699, "addition": 2804, "csa": 27804, "start": 2707, "calvin": 11130, "##cies": 9243, "[unused911]": 916, "qualification": 8263, "##acy": 15719, "bathrooms": 28942, "holder": 9111, "##oc": 10085, "holmes": 9106, "ship": 2911, "\u207a": 1544, "define": 9375, "observed": 5159, "baxter": 14664, "##\u4f0a": 30288, "wooded": 17172, "##jack": 17364, "disability": 11980, "unpublished": 19106, "##koto": 24886, "1658": 28944, "lan": 17595, "supports": 6753, "losing": 3974, "meat": 6240, "friedrich": 8896, "parades": 26635, "##ined": 21280, "bolts": 19947, "[unused755]": 760, "tian": 23401, "##\u30ed": 30261, "lucille": 28016, "vamp": 20279, "busy": 5697, "nasal": 19077, "quit": 8046, "applying": 11243, "smallest": 10479, "peugeot": 26385, "tilting": 21788, "\u6625": 1867, "awaited": 19605, "candidate": 4018, "argus": 25294, "relocated": 7448, "[unused413]": 418, "##li": 3669, "iraq": 5712, "macedonian": 13037, "##ks": 5705, "baden": 12189, "monkeys": 17059, "corrupt": 13593, "plural": 13994, "platt": 28005, "##\u0e17": 29948, "[unused574]": 579, "##lates": 26786, "incorporates": 12374, "rye": 20926, "asbestos": 29191, "##kes": 9681, "constituent": 13794, "evangelist": 24036, "\u2018": 1520, "promotions": 15365, "rulers": 11117, "##aman": 23093, "##\u026f": 29688, "peabody": 20004, "electro": 16175, "institutes": 12769, "##tov": 26525, "toes": 10393, "courtship": 28592, "##rigues": 22934, "liquidation": 28763, "[unused857]": 862, "[unused76]": 77, "comedic": 21699, "##eles": 26741, "sql": 29296, "portraits": 9668, "##lles": 20434, "keeps": 7906, "##buro": 23670, "##bari": 25990, "threw": 4711, "receiving": 4909, "dominance": 13811, "marathon": 8589, "panting": 15601, "lifeless": 22185, "##\u5bfa": 30353, "##utation": 26117, "shed": 8328, "augmented": 19335, "lowered": 6668, "philipp": 20765, "##mes": 7834, "fulton": 17049, "kildare": 24275, "##oux": 28700, "diagram": 16403, "shortest": 20047, "##rgy": 22637, "farmland": 16439, "##yst": 27268, "going": 2183, "enhance": 11598, "commentators": 15957, "brock": 13899, "vodka": 21092, "forte": 24898, "maj": 16686, "parental": 18643, "ripley": 25231, "modernist": 19770, "gold": 2751, "##\u72ac": 30434, "martinique": 29365, "##\u0452": 29758, "staging": 15308, "delivering": 12771, "huts": 23326, "primera": 14837, "kite": 20497, "isa": 18061, "\u5b80": 1818, "reduction": 7312, "worcestershire": 20218, "results": 3463, "gujarati": 26428, "##ded": 5732, "bloomington": 26372, "studies": 2913, "clay": 5726, "heads": 4641, "##rdes": 26371, "subtropical": 11935, "\u09a3": 1361, "\u2660": 1623, "##usa": 10383, "[unused806]": 811, "afro": 17694, "219": 20636, "##edge": 24225, "##\u0e01": 29945, "atrocities": 23482, "\u7af9": 1933, "murphy": 7104, "##ired": 27559, "flaw": 28450, "1846": 9244, "blackness": 19573, "lilith": 25576, "[unused912]": 917, "##uil": 19231, "squadrons": 11435, "austen": 24177, "fei": 24664, "winters": 12214, "upgrading": 25925, "struggle": 5998, "##64": 21084, "surviving": 6405, "fauna": 15018, "ineffective": 20694, "experimentation": 21470, "poverty": 5635, "stevie": 17458, "conflicts": 9755, "copy": 6100, "benson": 11999, "##\u00b6": 29660, "doherty": 23798, "description": 6412, "[unused931]": 936, "constitutes": 17367, "burnley": 23028, "luminous": 25567, "abnormalities": 28828, "depart": 18280, "all": 2035, "##gent": 11461, "vascular": 21449, "christie": 13144, "pak": 22190, "gallons": 18501, "##nage": 27031, "me": 2033, "[unused136]": 141, "divisions": 5908, "[unused176]": 181, "dedicated": 4056, "exploring": 11131, "reform": 5290, "referencing": 28789, "bradley": 8981, "shoots": 11758, "##\u30a3": 30220, "##me": 4168, "boeing": 10321, "henley": 20768, "awake": 8300, "##slow": 26338, "ceremonies": 10912, "planes": 9738, "recruited": 8733, "affordable": 15184, "##ash": 11823, "730": 28004, "##fighting": 22158, "shocking": 16880, "##iani": 25443, "lucius": 15639, "##\u044c": 23742, "airspace": 29357, "##lled": 11001, "licked": 11181, "\u3082": 1681, "1913": 5124, "examples": 4973, "##itude": 18679, "consonant": 18265, "\u30ef": 1736, "frequent": 6976, "##guchi": 16918, "vito": 25550, "journal": 3485, "instruction": 7899, "probability": 9723, "solidarity": 14657, "wilkinson": 16237, "e": 1041, "\u0272": 1123, "[unused790]": 795, "wool": 12121, "out": 2041, "preparations": 12929, "##ksha": 28132, "militia": 8396, "sparhawk": 13709, "obstruction": 27208, "##\u0b9f": 29920, "menacing": 24060, "dipped": 13537, "[unused311]": 316, "usable": 24013, "trump": 8398, "climate": 4785, "val": 11748, "geo": 20248, "##nton": 15104, "\u4ecb": 1759, "##rest": 28533, "contribution": 6691, "expected": 3517, "launching": 12106, "chronicles": 11906, "victorian": 6652, "##cure": 23887, "questioned": 8781, "wakefield": 16045, "wyatt": 12986, "instance": 6013, "bugs": 12883, "felix": 8383, "sui": 24086, "boar": 24187, "suspended": 6731, "prussian": 10734, "##helm": 24546, "costing": 22173, "tinted": 25577, "194": 19955, "##hiff": 25798, "ghost": 5745, "gardiner": 21143, "tanned": 25973, "drug": 4319, "abyss": 22159, "redevelopment": 15582, "kobe": 24113, "[unused829]": 834, "patents": 13979, "oro": 20298, "release": 2713, "antrim": 24142, "##aging": 16594, "##tri": 18886, "contaminated": 19450, "academie": 19669, "##dog": 16168, "\u2286": 1611, "illustrated": 7203, "##eck": 11012, "consistent": 8335, "##mart": 22345, "hummed": 26747, "recipes": 19328, "fighters": 7299, "1850s": 16488, "corrupted": 27279, "##ratic": 23671, "antiques": 27763, "bitterly": 19248, "dario": 26800, "microscope": 24635, "zhejiang": 26805, "rm": 28549, "pitcher": 8070, "\u5fd7": 1851, "berwick": 24957, "##anor": 27869, "roam": 25728, "today": 2651, "archer": 11024, "rochelle": 25649, "distinctions": 25995, "words": 2616, "##zar": 9057, "bottles": 11015, "beneficial": 15189, "hop": 6154, "##ota": 17287, "stormy": 24166, "methane": 24481, "[unused551]": 556, "indie": 10271, "##uder": 29190, "\u6751": 1878, "athlete": 8258, "massacre": 9288, "appeals": 9023, "reviewer": 12027, "coliseum": 18338, "incumbent": 7703, "bribe": 26470, "croix": 18733, "rank": 4635, "harlow": 22545, "diffuse": 28105, "##nous": 18674, "weep": 27874, "[unused904]": 909, "essentially": 7687, "katherine": 9477, "frost": 10097, "rotten": 11083, "p": 1052, "##ryl": 23320, "balls": 7395, "##ids": 9821, "80s": 16002, "##tens": 25808, "even": 2130, "##yin": 25811, "swamp": 11963, "##hyl": 29598, "well": 2092, "##\u4eac": 30281, "estimate": 10197, "haul": 14655, "##tling": 15073, "##ards": 18117, "hauling": 23113, "grimsby": 24470, "clap": 28618, "##hof": 14586, "notification": 26828, "\u1d50": 1502, "brisbane": 7717, "conversations": 11450, "hyderabad": 13624, "chooses": 15867, "teammate": 10809, "royalties": 25335, "cruiser": 10844, "##16": 16048, "figured": 6618, "pas": 14674, "1621": 27037, "jude": 12582, "##asia": 15396, "##tangled": 27898, "stanis\u0142aw": 26133, "fluorescent": 22184, "contracted": 11016, "dove": 10855, "1870s": 14896, "\u674e": 1877, "##acle": 18630, "malayalam": 12998, "risked": 22374, "g": 1043, "lila": 19286, "perrin": 28106, "preceded": 11677, "##kor": 21815, "##\u653f": 30386, "succumbed": 25642, "##tal": 9080, "##ies": 3111, "suzy": 28722, "scores": 7644, "[unused154]": 159, "postdoctoral": 29272, "fargo": 23054, "suburbs": 9435, "bart": 12075, "##pass": 15194, "frontier": 8880, "waved": 7147, "curling": 11599, "corporations": 11578, "##mian": 20924, "dialects": 11976, "tangible": 24600, "weighed": 12781, "\u0645": 1295, "\u4e8c": 1752, "staring": 4582, "78": 6275, "##ulates": 18969, "escorting": 23831, "withdrawing": 21779, "##raz": 20409, "practised": 20439, "\u9053": 1957, "##ulator": 20350, "\u30e2": 1727, "reprised": 22598, "##ese": 6810, "\u062d": 1276, "passageway": 27336, "##izing": 6026, "##pd": 17299, "##lund": 18028, "[unused12]": 13, "distraction": 14836, "avatar": 22128, "premise": 18458, "##lino": 25226, "inhabited": 9613, "##\u884c": 30471, "ankara": 20312, "favors": 21191, "faulty": 28927, "halves": 23672, "##ver": 6299, "timber": 7227, "##planes": 26634, "[unused944]": 949, "pleased": 7537, "poured": 8542, "brady": 10184, "excitement": 8277, "##\u7af9": 30459, "throbbing": 17061, "by": 2011, "##stad": 16917, "transplant": 22291, "##itors": 27287, "suburban": 9282, "##oy": 6977, "champions": 3966, "scenes": 5019, "fares": 27092, "##<": 29629, "judaism": 13725, "bean": 14068, "willing": 5627, "mistakenly": 20706, "swept": 7260, "littered": 24777, "fiba": 13651, "limit": 5787, "io": 22834, "advise": 18012, "##\u3084": 30208, "regulates": 26773, "[unused872]": 877, "##\u201d": 30059, "panthers": 12915, "intersects": 17349, "clone": 17598, "sides": 3903, "chores": 27091, "montenegrin": 24099, "nominated": 4222, "afar": 28978, "rupert": 14641, "indefinite": 25617, "softly": 5238, "skin": 3096, "contemporary": 3824, "centuries": 4693, "ville": 20184, "2015": 2325, "spell": 6297, "hugged": 10308, "##nco": 15305, "\u0e21": 1415, "cho": 16480, "exploited": 18516, "carole": 24348, "##bro": 12618, "appeared": 2596, "solely": 9578, "automobile": 9935, "borneo": 15688, "carleton": 22273, "##wick": 7184, "sobbing": 20040, "nasty": 11808, "banned": 7917, "##ham": 3511, "##iques": 19516, "hitch": 27738, "beach": 3509, "presents": 7534, "chaos": 8488, "relocating": 26811, "##uma": 12248, "lose": 4558, "fertile": 14946, "copa": 10613, "contestant": 10832, "\u2605": 1620, "##ond": 15422, "reg": 19723, "layton": 23103, "unavailable": 20165, "upbringing": 24615, "letter": 3661, "beast": 6841, "nakamura": 23981, "gaston": 18572, "reckon": 29072, "concluding": 16228, "##ges": 8449, "gut": 9535, "[unused914]": 919, "sited": 28603, "death": 2331, "##gami": 26517, "participating": 8019, "pediatric": 23614, "savior": 24859, "undertake": 16617, "ochreous": 23474, "mausoleum": 19049, "um": 8529, "##estra": 26199, "liang": 16982, "jacket": 6598, "emerging": 8361, "aqua": 28319, "puff": 23893, "louie": 17438, "fascist": 14870, "theologians": 29013, "ko": 12849, "quarrel": 26260, "regency": 15647, "matthias": 17885, "plank": 24000, "nothin": 24218, "##\u02b3": 29708, "explanations": 17959, "##ys": 7274, "ku": 13970, "california": 2662, "sentenced": 7331, "buying": 9343, "wireless": 9949, "goalscorer": 28602, "convergence": 19143, "##plate": 15725, "emilio": 18644, "installment": 18932, "broader": 12368, "##arians": 28369, "vickers": 18571, "haydn": 25595, "verification": 22616, "shiny": 12538, "apple": 6207, "butch": 17520, "pol": 14955, "luzon": 21622, "pants": 6471, "##iful": 18424, "5000": 13509, "##\u3081": 30206, "oxygen": 7722, "pipeline": 13117, "##back": 5963, "standardized": 16367, "##ophone": 25232, "cameo": 12081, "other": 2060, "toby": 11291, "lad": 14804, "##co": 3597, "conjecture": 22647, "##rave": 22401, "kenji": 25894, "czech": 5569, "figurative": 29407, "15": 2321, "sesame": 23605, "peanuts": 27613, "romanized": 7651, "cue": 16091, "adulthood": 20480, "easton": 21636, "fashionable": 19964, "##sden": 27903, "##hine": 14014, "[unused353]": 358, "funds": 5029, "accessories": 16611, "proposals": 10340, "gloria": 10778, "made": 2081, "social": 2591, "vegetarian": 23566, "synthetic": 12553, "beaufort": 23622, "duval": 23929, "modest": 10754, "model": 2944, "slopes": 10314, "cornwall": 10387, "##grating": 28183, "fractured": 21726, "hold": 2907, "maintain": 5441, "portions": 8810, "counterattack": 27835, "##\u53f8": 30317, "spying": 22624, "cadence": 23620, "video": 2678, "##86": 20842, "luz": 26214, "whirled": 17097, "##par": 19362, "owe": 12533, "icelandic": 14024, "shouldered": 29383, "spiritual": 6259, "color": 3609, "feels": 5683, "translators": 28396, "treaties": 16013, "bills": 8236, "celebrated": 6334, "cia": 9915, "heir": 8215, "mortgage": 14344, "##\u91d1": 30490, "explored": 10641, "##uche": 19140, "gothenburg": 22836, "##ical": 7476, "hays": 29051, "292": 25797, "##arty": 23871, "probably": 2763, "specialization": 28031, "indicate": 5769, "terre": 25170, "millions": 8817, "extraordinary": 9313, "interpretation": 7613, "ode": 24040, "\u20b9": 1576, "complexity": 11619, "work": 2147, "##rran": 28327, "kenton": 25446, "wikipedia": 16948, "##nza": 16786, "##station": 20100, "otter": 22279, "##liche": 27412, "##mers": 16862, "paxton": 27765, "galveston": 26630, "ara": 19027, "wellness": 25860, "##mb": 14905, "##city": 12972, "portal": 9445, "financing": 12135, "conceded": 15848, "navigable": 28538, "underground": 5230, "ter": 28774, "##kin": 4939, "##oso": 19137, "alexandra": 10481, "seating": 10747, "central": 2430, "navigation": 9163, "matrix": 8185, "##gat": 20697, "appalachian": 19682, "##yah": 17560, "mcdonnell": 23149, "large": 2312, "angus": 13682, "##xy": 18037, "##elis": 29282, "most": 2087, "rani": 21617, "eastenders": 28936, "\u062e": 1277, "chilled": 23362, "aus": 17151, "twins": 8178, "taste": 5510, "performances": 4616, "andrea": 8657, "##\u66f2": 30396, "1800s": 19878, "undergone": 17215, "##log": 21197, "packers": 15285, "##ption": 16790, "##nary": 24041, "nz": 20008, "trombone": 13914, "##cuting": 29163, "sneakers": 28130, "twentieth": 9086, "[unused449]": 454, "preaching": 17979, "enforcing": 27455, "ramsey": 15092, "alzheimer": 21901, "capable": 5214, "1903": 5778, "lille": 22479, "1974": 3326, "\u30e9": 1731, "checked": 7039, "simplified": 11038, "interfering": 24324, "bragg": 23678, "quartet": 8530, "extras": 26279, "detrimental": 29172, "herzegovina": 11453, "catholicism": 16138, "disagree": 21090, "melting": 13721, "nicky": 20158, "\u1d52": 1503, "##ings": 8613, "vacuum": 11641, "dora": 21008, "fascinated": 15677, "[unused797]": 802, "\u1d57": 1505, "remixed": 17574, "album": 2201, "millie": 19561, "modernization": 20181, "##hima": 16369, "hoax": 28520, "##\u062b": 29818, "far": 2521, "##rial": 14482, "lal": 21348, "reflects": 11138, "vault": 11632, "creating": 4526, "advantage": 5056, "vice": 3580, "disturbed": 12491, "[unused990]": 995, "241": 22343, "runes": 29161, "raiders": 10642, "werner": 14121, "nouvelle": 25207, "important": 2590, "quiver": 29049, "##nath": 16207, "choking": 18329, "\u6cb3": 1899, "confinement": 21551, "green": 2665, "babylon": 17690, "permanently": 8642, "##\u0250": 29676, "organise": 22933, "##raus": 25965, "than": 2084, "##\u5bbf": 30352, "##rsa": 22381, "error": 7561, "norma": 20692, "tingling": 23690, "[unused220]": 225, "1": 1015, "memorabilia": 28663, "enraged": 18835, "##dd": 14141, "\u03bf": 1169, "\u208e": 1559, "##\u672c": 30402, "\u306a": 1667, "healthy": 7965, "texture": 14902, "secure": 5851, "castro": 11794, "##unce": 17457, "wadi": 28380, "##idal": 16975, "clashes": 17783, "##41": 23632, "disruption": 20461, "##cala": 25015, "##anian": 26032, "##\u056c": 29773, "outlets": 11730, "caravan": 17184, "exceed": 13467, "##elial": 24587, "277": 25578, "gunter": 27834, "[unused0]": 1, "peaceful": 9379, "conduct": 6204, "ram": 8223, "coloured": 11401, "samsung": 19102, "gravitational": 19790, "dammit": 20878, "brand": 4435, "ut": 21183, "yielding": 21336, "##vid": 17258, "padres": 21577, "\u027e": 1126, "undoubtedly": 17319, "telugu": 12180, "##av": 11431, "hermann": 12224, "##mu": 12274, "appealing": 16004, "attorneys": 16214, "bourgeois": 22846, "##ulum": 25100, "codes": 9537, "$": 1002, "##enko": 17868, "loaf": 27048, "egan": 27889, "christ": 4828, "behaviors": 15592, "council": 2473, "archibald": 15917, "connell": 17199, "insist": 18292, "garde": 14535, "##zaki": 18637, "strasbourg": 18104, "##icz": 18682, "lacy": 19959, "joyah": 27098, "ball": 3608, "donnell": 18016, "amongst": 5921, "allmusic": 10477, "roommate": 18328, "norris": 15466, "##\u0bb2": 29928, "dancer": 8033, "film": 2143, "deadly": 9252, "essence": 11305, "bluegrass": 21286, "kannada": 13873, "##ac": 6305, "pitchfork": 22355, "##\u03b6": 29724, "ascot": 29036, "windmill": 25367, "0": 1014, "\u1110": 1467, "playground": 14705, "\u30ed": 1735, "paris": 3000, "[unused725]": 730, "[unused314]": 319, "comprise": 15821, "bladed": 27402, "awaiting": 15497, "liberties": 18271, "##agne": 25440, "drowned": 12805, "##se": 3366, "derby": 7350, "miller": 4679, "fights": 9590, "##personal": 28823, "uncredited": 8104, "reilly": 13875, "##\u7701": 30446, "downstairs": 10025, "typed": 21189, "frigate": 15437, "seriously": 5667, "collin": 22180, "farmhouse": 16870, "specifically": 4919, "looming": 23430, "##\u10e3": 29990, "##mering": 27851, "manson": 21440, "radically": 25796, "3rd": 3822, "exception": 6453, "canton": 8770, "forming": 5716, "zinc": 15813, "disposition": 22137, "feelings": 5346, "bohemia": 16799, ".": 1012, "caress": 21753, "##lese": 24527, "##umber": 29440, "libel": 26201, "barnes": 9957, "##uous": 8918, "cascade": 16690, "##\u116e": 30014, "##yal": 21095, "francis": 4557, "laura": 6874, "spy": 8645, "fanny": 17813, "reluctance": 21662, "cleared": 5985, "crooked": 15274, "nutritional": 28268, "soils": 13622, "walkover": 17495, "palace": 4186, "freeway": 10846, "trey": 14826, "heavenly": 16581, "[unused592]": 597, "frowns": 29303, "percy": 11312, "laughing": 5870, "comparisons": 18539, "italics": 19408, "cordoba": 17986, "fused": 19660, "dentistry": 26556, "transactions": 11817, "\u9580": 1968, "##moral": 22049, "##liga": 14715, "tristan": 9822, "configured": 26928, "info": 18558, "mildly": 19499, "freshman": 10452, "##roving": 22046, "peas": 26072, "##lver": 26229, "elusive": 26475, "year": 2095, "##thor": 27844, "sort": 4066, "blanche": 18158, "trivial": 20610, "##wai": 21547, "circuit": 4984, "circumstances": 6214, "assumes": 15980, "[unused528]": 533, "relative": 5816, "march": 2233, "encompassing": 19129, "##rity": 15780, "hockey": 3873, "categories": 7236, "clarified": 20485, "barton": 12975, "elliott": 9899, "##oop": 18589, "horsemen": 25431, "[unused655]": 660, "##\u05e8": 29811, "supply": 4425, "gage": 10012, "##pio": 22071, "##man": 2386, "ghetto": 17276, "extinct": 8548, "muller": 12304, "reunited": 11653, "less": 2625, "booster": 23715, "trained": 4738, "thereafter": 6920, "marian": 14042, "rebirth": 22785, "edmonton": 10522, "focusing": 7995, "corridor": 7120, "insults": 23862, "demonstration": 10467, "aegean": 27198, "nineteen": 11977, "clayton": 11811, "fraction": 12884, "demoted": 25692, "\u2081": 1548, "tak": 27006, "##\u00be": 29665, "##idia": 29342, "##nu": 11231, "decay": 13121, "granite": 9753, "##yria": 20379, "barcelona": 7623, "coffee": 4157, "hybrids": 23376, "cocaine": 16034, "running": 2770, "sutra": 26567, "motel": 14901, "##\u00bf": 29666, "##\u6b4c": 30412, "soda": 14904, "##folia": 21710, "modifying": 29226, "peninsula": 6000, "gestured": 11574, "ein": 16417, "accountability": 17842, "[unused587]": 592, "##ead": 13775, "khalifa": 27925, "nippon": 19364, "pieces": 4109, "dictatorship": 18944, "1744": 25846, "##amina": 27651, "bamboo": 15216, "gratitude": 15531, "##urse": 28393, "trailing": 12542, "janet": 9965, "maxim": 20446, "lake": 2697, "petrol": 17141, "chunks": 24839, "\u0456": 1213, "##lbert": 23373, "whistled": 26265, "ul": 17359, "building": 2311, "eritrea": 26040, "scooped": 20804, "dan": 4907, "minority": 7162, "lancaster": 10237, "maximus": 21692, "cafes": 23812, "##\u09a6": 29900, "georgia": 4108, "hannah": 8410, "\u3061": 1662, "debate": 5981, "##cino": 21081, "##rang": 24388, "snacks": 27962, "##orro": 29459, "passing": 4458, "fellows": 13572, "wrong": 3308, "independents": 23756, "jung": 11810, "##cated": 12921, "christmas": 4234, "pakistan": 4501, "ecosystem": 16927, "\u09aa": 1367, "drake": 7867, "depend": 12530, "uttered": 20947, "declining": 13993, "ic": 24582, "joey": 9558, "##\u4fdd": 30292, "polo": 11037, "beit": 28236, "hosting": 9936, "delaying": 29391, "##lass": 27102, "nietzsche": 28898, "##utz": 20267, "dil": 29454, "##erving": 25164, "ahmed": 10208, "##iro": 9711, "opted": 12132, "##\u307b": 30202, "\u043d": 1192, "##illo": 10486, "distributors": 22495, "express": 4671, "nueva": 24536, "della": 8611, "##tric": 12412, "tube": 7270, "136": 15407, "gears": 19456, "planet": 4774, "##cius": 25393, "festival": 2782, "creative": 5541, "##ylus": 18871, "charged": 5338, "boyfriend": 6898, "cyprus": 9719, "resolutions": 18853, "cluster": 9324, "presentations": 18216, "1829": 11523, "gibbs": 15659, "remastered": 19484, "listings": 26213, "dr": 2852, "goldberg": 18522, "davies": 9082, "mexican": 4916, "closure": 8503, "\u30b3": 1704, "runaway": 19050, "chest": 3108, "##eki": 26576, "ceramics": 17314, "pursed": 21954, "##zen": 10431, "prepare": 7374, "hostages": 19323, "##he": 5369, "brushes": 22569, "depressed": 14777, "trusts": 20278, "musik": 28076, "involuntary": 26097, "fleming": 13779, "lipstick": 22359, "oriented": 8048, "exemption": 19621, "##ressed": 16119, "system": 2291, "responsibilities": 10198, "destroying": 9846, "notorious": 12536, "creed": 16438, "cpc": 28569, "cool": 4658, "[unused272]": 277, "prussia": 10724, "##finder": 23695, "admiral": 5902, "bern": 16595, "\u22c5": 1614, "##cca": 16665, "pontiac": 24538, "##ot": 4140, "res": 24501, "eclipse": 13232, "coordinates": 12093, "triggering": 29170, "plateau": 9814, "[unused523]": 528, "solid": 5024, "##ias": 7951, "tournaments": 8504, "turf": 14585, "##anto": 21634, "peace": 3521, "##\u91ce": 30489, "oversaw": 14105, "managerial": 24465, "mfa": 26913, "lyons": 16642, "coalition": 6056, "damage": 4053, "eastern": 2789, "##ffie": 29055, "##urian": 29091, "##stems": 29189, "donkey": 20325, "filing": 15242, "diana": 8805, "ether": 28855, "ks": 29535, "extract": 14817, "friday": 5958, "abolition": 15766, "##cha": 7507, "tense": 9049, "scots": 12196, "cassie": 8869, "huskies": 29471, "##kill": 15872, "##itarian": 25691, "[unused396]": 401, "bracelet": 19688, "57th": 28623, "\u91d1": 1964, "reforming": 29455, "ulrich": 19619, "thinner": 23082, "siemens": 22108, "##\u21a6": 30116, "##gut": 27920, "jr": 3781, "decreased": 10548, "peering": 16740, "assigns": 24022, "correction": 18140, "cheers": 21250, "operations": 3136, "hermes": 24127, "[unused245]": 250, "quantum": 8559, "intercepted": 16618, "animation": 7284, "marche": 28791, "proton": 20843, "tunic": 23002, "##\u592a": 30338, "mattered": 13836, "##saurus": 22244, "woody": 13703, "pitching": 14696, "##ih": 19190, "##iec": 23783, "las": 5869, "spot": 3962, "'": 1005, "##dust": 24220, "##ass": 12054, "trains": 4499, "buena": 27493, "sockets": 27540, "cullen": 19925, "specialty": 12233, "taps": 25316, "associated": 3378, "##ractive": 26884, "##ws": 9333, "companies": 3316, "1873": 7612, "\u209b": 1570, "##tite": 23096, "fibers": 16662, "pushed": 3724, "detained": 14620, "sugar": 5699, "janata": 20308, "einstein": 15313, "640": 19714, "newport": 9464, "populous": 20151, "necessarily": 9352, "observe": 11949, "membrane": 10804, "tops": 13284, "[unused299]": 304, "hospitals": 8323, "finite": 10713, "regard": 7634, "##iface": 29164, "##llation": 20382, "reflecting": 10842, "flickering": 20046, "2018": 2760, "blessing": 13301, "slashed": 23587, "digger": 28661, "packed": 8966, "mann": 10856, "##ffed": 15388, "neighborhoods": 11681, "##gers": 15776, "hardwood": 23165, "##eber": 22669, "##rdi": 17080, "cooperative": 10791, "konstantin": 23989, "[unused654]": 659, "statutory": 15201, "unfamiliar": 16261, "jj": 29017, "[unused331]": 336, "prey": 8336, "spat": 14690, "##rgeon": 28242, "poster": 13082, "##ry": 2854, "natural": 3019, "blamed": 11248, "leach": 24520, "\u2265": 1609, "friction": 15012, "jimi": 27624, "akira": 21616, "##\u1d50": 30038, "[unused885]": 890, "formula": 5675, "suite": 7621, "[unused869]": 874, "##lit": 15909, "celebration": 7401, "inactive": 16389, "370": 16444, "intern": 25204, "tangent": 27250, "##guide": 28582, "brothel": 27308, "blue": 2630, "spraying": 29035, "nokia": 22098, "o": 1051, "crack": 8579, "1848": 7993, "##\u0f44": 29963, "##lani": 21141, "##erus": 21608, "access": 3229, "##enas": 26474, "urged": 9720, "mara": 13955, "##ales": 23266, "##mobile": 17751, "##ling": 2989, "renault": 14605, "impressions": 19221, "investigates": 28062, "nolan": 13401, "##avio": 28471, "waterloo": 13784, "negotiating": 18875, "growl": 13349, "musique": 25784, "lucan": 20764, "hartley": 20955, "[unused42]": 43, "authoritative": 23949, "evan": 9340, "slippery": 22274, "crocodile": 21843, "chemical": 5072, "opens": 7480, "establishments": 17228, "stepfather": 21481, "qatar": 12577, "\u03bd": 1167, "[unused438]": 443, "graham": 5846, "nostrils": 15325, "##cles": 18954, "+": 1009, "sequence": 5537, "bankers": 25375, "dirty": 6530, "constabulary": 23791, "herring": 22103, "##standing": 24911, "cut": 3013, "consumed": 10202, "##los": 10483, "hilt": 21184, "bmg": 24499, "\u5408": 1792, "##shah": 25611, "potentially": 9280, "##ip": 11514, "avon": 16131, "howell": 18473, "protects": 18227, "##lish": 13602, "forth": 5743, "politics": 4331, "mastering": 11495, "merit": 7857, "brunei": 18692, "##pon": 26029, "harden": 28751, "chateau": 11874, "aquatic": 13582, "ongoing": 7552, "dentist": 24385, "\u0f62": 1434, "compression": 13379, "edinburgh": 5928, "cas": 25222, "rahman": 14364, "\u56db": 1798, "##odon": 28716, "granted": 4379, "[unused356]": 361, "centre": 2803, "[unused170]": 175, "conducting": 9283, "##nessy": 25441, "##4th": 26724, "rent": 9278, "skopje": 29255, "sutherland": 14274, "curved": 9203, "sim": 21934, "\u4e45": 1748, "##swick": 27720, "perceive": 23084, "drops": 9010, "reset": 25141, "snap": 10245, "##\u05da": 29797, "[unused794]": 799, "mosques": 21922, "##her": 5886, "chieftain": 26625, "champs": 29008, "##metry": 24327, "rod": 8473, "##ister": 12911, "indirectly": 17351, "turin": 13667, "rampage": 29216, "##jn": 22895, "hotter": 22302, "stabilized": 27697, "battleship": 17224, "overseeing": 19642, "bundled": 24378, "climbed": 6589, "consolation": 24831, "\u05e8": 1265, "182": 17691, "##ulton": 22145, "gran": 12604, "mold": 18282, "slavic": 13838, "scalp": 21065, "jozef": 23258, "##\u6c5f": 30423, "##hiti": 27798, "medicine": 4200, "assert": 20865, "ol": 19330, "\u00a32": 21853, "beds": 9705, "256": 17273, "##ference": 25523, "gather": 8587, "persia": 16667, "contractors": 16728, "pilgrim": 21214, "competence": 22219, "het": 21770, "honeymoon": 19227, "dubbed": 9188, "##rit": 14778, "mcintosh": 29052, "##gu": 12193, "picasso": 22457, "dinamo": 22306, "seymour": 13254, "[unused340]": 345, "jumping": 8660, "archived": 9749, "breton": 16659, "##ust": 19966, "mk": 12395, "##ting": 3436, "##beck": 12750, "saves": 13169, "chef": 10026, "##post": 19894, "##free": 23301, "##vac": 24887, "outrageous": 25506, "bmw": 13154, "1732": 27582, "hedges": 25840, "criticisms": 19628, "filly": 22062, "siegel": 27996, "bros": 10243, "1666": 27407, "rebuilt": 7183, "298": 27240, "crusader": 25237, "##chen": 8661, "unfortunate": 15140, "hilltop": 25566, "##vs": 15088, "sculpture": 6743, "[unused698]": 703, "nguyen": 16577, "economies": 18730, "skills": 4813, "remind": 10825, "baptism": 18336, "\u0563": 1221, "newfound": 27608, "islam": 7025, "k": 1047, "cabins": 20321, "handicapped": 26920, "burrows": 22009, "##say": 24322, "luck": 6735, "meter": 8316, "goin": 17249, "##keepers": 24764, "##\u2098": 30096, "[unused625]": 630, "weasel": 29268, "finland": 6435, "##sb": 19022, "xv": 15566, "##go": 3995, "station": 2276, "##dorf": 11592, "wesleyan": 19858, "turnbull": 26439, "himalayas": 26779, "##\u0628\u0627\u062f": 25799, "batteries": 10274, "altered": 8776, "##tic": 4588, "[unused741]": 746, "##nais": 28020, "starboard": 25211, "edgar": 9586, "\u5929": 1811, "##worthy": 13966, "parcel": 20463, "kathy": 14986, "chang": 11132, "hymn": 14825, "gazed": 11114, "raid": 8118, "##\u03b8": 29725, "leftist": 24247, "##anal": 27953, "rehearsal": 17887, "showcased": 22443, "pisa": 25472, "gloom": 24067, "141": 15471, "jin": 9743, "celestial": 17617, "presiding": 18131, "m2": 25525, "biological": 6897, "notice": 5060, "bolton": 12118, "pedro": 7707, "ties": 7208, "psycho": 18224, "bassist": 9858, "grab": 6723, "friendships": 28956, "or": 2030, "something": 2242, "eager": 9461, "sharpe": 22147, "##che": 5403, "##wc": 16526, "sabrina": 21876, "##icum": 22167, "panda": 25462, "breasts": 12682, "runoff": 19550, "senator": 5205, "similarity": 14402, "tended": 11121, "exasperated": 24379, "##ite": 4221, "conjunction": 9595, "raises": 13275, "[unused851]": 856, "sophie": 8234, "##era": 6906, "##ck": 3600, "##raphy": 26228, "gerald": 9659, "##fying": 14116, "bladder": 24176, "43": 4724, "composition": 5512, "##\u1d9c": 30046, "wow": 10166, "polk": 20819, "flourishing": 29571, "transparent": 13338, "snatched": 14177, "##rized": 18425, "throttle": 24420, "joint": 4101, "34th": 20460, "bulbs": 25548, "portugal": 5978, "removed": 3718, "conducts": 17976, "##gram": 13113, "clad": 13681, "rendezvous": 20558, "respects": 17475, "separation": 8745, "circles": 7925, "\u2663": 1624, "porter": 8716, "drawer": 13065, "waterway": 23668, "cork": 8513, "penn": 9502, "\u266f": 1628, "departing": 15971, "went": 2253, "adventure": 6172, "##zia": 12871, "elephants": 16825, "camel": 19130, "said": 2056, "\u1d47": 1497, "24": 2484, "un": 4895, "cartridges": 22998, "tariffs": 26269, "##zog": 28505, "testing": 5604, "25th": 10965, "squeak": 29552, "implied": 13339, "combination": 5257, "##\u0142a": 22972, "military": 2510, "neared": 20832, "maiden": 10494, "##ding": 4667, "##\u30e0": 30251, "\u5149": 1770, "vertigo": 28246, "tracts": 22069, "##erland": 22492, "modified": 6310, "increasingly": 6233, "extracted": 15901, "enthusiast": 29550, "##oration": 21223, "\u5e78": 1841, "machine": 3698, "##min": 10020, "307": 24559, "squeeze": 11025, "fingerprints": 27556, "##ley": 3051, "##\u1d4d": 30036, "##eira": 21302, "asa": 17306, "newtown": 26382, "skating": 10080, "submerged": 13563, "filled": 3561, "fierce": 9205, "tucker": 9802, "runway": 9271, "\u79cb": 1929, "adamant": 29502, "exists": 6526, "302": 22060, "downstream": 13248, "command": 3094, "ward": 4829, "leary": 22986, "##ment": 3672, "deciding": 10561, "overgrown": 26433, "20s": 27074, "pentagon": 20864, "pictorial": 28304, "sad": 6517, "flour": 13724, "decrease": 9885, "anson": 25435, "1751": 24440, "burgundy": 18383, "##mac": 22911, "##ated": 4383, "##pressive": 27484, "blossoms": 28766, "##ua": 6692, "commission": 3222, "retreat": 7822, "##evic": 17726, "comedians": 25119, "questioning": 11242, "clocks": 20940, "starts": 4627, "governed": 9950, "aug": 15476, "lorraine": 13895, "226": 21035, "fare": 13258, "nobles": 13969, "line": 2240, "tugged": 10621, "supplemental": 27024, "##drum": 21884, "swedish": 4467, "arteries": 28915, "subsidy": 28768, "##rne": 12119, "##jima": 19417, "drowning": 14759, "familiar": 5220, "lead": 2599, "dd": 20315, "chatting": 22331, "hove": 25215, "hemingway": 27299, "silesian": 20453, "squinting": 29156, "alaska": 7397, "microphone": 15545, "\u4fe1": 1767, "rumors": 11256, "claude": 8149, "mused": 22335, "solemnly": 26294, "##felt": 26675, "relevant": 7882, "professor": 2934, "magdalena": 23984, "approved": 4844, "writings": 7896, "relay": 8846, "1811": 13086, "rations": 29559, "working": 2551, "leap": 11679, "\u0b9f": 1384, "constantine": 12790, "joints": 17651, "priesthood": 17911, "aloud": 12575, "melee": 27868, "bremen": 16314, "##cous": 27199, "contiguous": 25177, "##pe": 5051, "grimm": 24287, "gunnery": 27919, "showed": 3662, "mandy": 18193, "sy": 25353, "##zko": 29002, "flavor": 14894, "##bone": 14417, "ufc": 11966, "remarked": 10783, "romani": 23982, "##\u0142": 18818, "hospital": 2902, "burke": 9894, "commanders": 11437, "booklet": 19271, "surveillance": 9867, "fried": 13017, "##vsky": 15904, "soloist": 16504, "slots": 19832, "##sio": 20763, "##kley": 22315, "1794": 13199, "##ios": 10735, "cylinder": 7956, "childhood": 5593, "uploaded": 21345, "migrating": 28636, "husband": 3129, "tallest": 13747, "jealousy": 14225, "growth": 3930, "kentucky": 5612, "settlers": 7322, "##ols": 27896, "libyan": 19232, "##schaft": 26527, "awards": 2982, "[unused293]": 298, "gentleman": 10170, "lowers": 24950, "##ore": 5686, "##wich": 12414, "committees": 9528, "escorts": 24877, "24th": 13386, "derive": 18547, "lids": 26122, "##ssed": 29417, "summit": 6465, "rosemary": 18040, "lair": 21039, "crosses": 7821, "outrage": 19006, "deemed": 8357, "challenge": 4119, "norwegian": 5046, "##kai": 11151, "amid": 13463, "213": 19883, "##il": 4014, "accomplishment": 24718, "sevilla": 29363, "##iba": 18410, "intervention": 8830, "omitted": 16647, "troupe": 16017, "alfonso": 13591, "downing": 22501, "##going": 26966, "##ona": 7856, "whitley": 27007, "photon": 26383, "identical": 7235, "communists": 13009, "##inal": 13290, "##ying": 14147, "judges": 6794, "ashes": 11289, "hooves": 28399, "launch": 4888, "harriet": 14207, "colonists": 15526, "mumbai": 8955, "##\u305d": 30186, "perform": 4685, "officials": 4584, "fairy": 8867, "puerto": 5984, "##lon": 7811, "vs": 5443, "grill": 18651, "loft": 19459, "emphasizing": 22671, "act": 2552, "[unused360]": 365, "publishing": 4640, "factors": 5876, "##monium": 26387, "[unused916]": 921, "##raine": 26456, "maddy": 20789, "determining": 12515, "##pire": 20781, "supervising": 21238, "league": 2223, "forehead": 6130, "sheila": 15062, "rotting": 22005, "definitive": 15764, "chorale": 26561, "rights": 2916, "##due": 20041, "##charged": 22620, "470": 21064, "cure": 9526, "r": 1054, "contracts": 8311, "sly": 18230, "shootout": 18297, "harmony": 9396, "intellectual": 7789, "[unused228]": 233, "##tum": 11667, "##aurus": 17342, "crap": 10231, "##\u2026": 30064, "stuttgart": 13022, "danny": 6266, "dresses": 14464, "doctrine": 8998, "\u300c": 1641, "mas": 16137, "surrey": 9948, "tackle": 11147, "mercy": 8673, "[unused236]": 241, "wa": 11333, "weird": 6881, "lafayette": 14425, "ferrara": 28635, "##rella": 21835, "gmbh": 18289, "musically": 21385, "sequential": 25582, "1605": 28202, "bonfire": 28698, "canopy": 14582, "exploded": 9913, "accordance": 10388, "alliances": 21277, "##lassified": 24938, "[unused554]": 559, "##issa": 21205, "figuring": 23218, "lick": 15385, "##rat": 8609, "walk": 3328, "prediction": 17547, "spots": 7516, "puzzled": 14909, "regretted": 18991, "engraving": 23501, "##bright": 26614, "##auer": 21126, "wig": 24405, "##made": 21565, "1960": 3624, "##tering": 17989, "zane": 6944, "##gart": 27378, "##rned": 21119, "yang": 8675, "ravens": 17272, "confesses": 22826, "insufficient": 13990, "gerhard": 21037, "reopened": 11882, "landscape": 5957, "aces": 20232, "##lr": 20974, "\u4ee3": 1760, "##ashi": 12914, "stone": 2962, "mandated": 16714, "falling": 4634, "moroccan": 17494, "potent": 16834, "pilgrims": 17992, "simultaneously": 7453, "detected": 11156, "helplessly": 24942, "airmen": 29437, "1925": 4849, "anything": 2505, "plant": 3269, "producers": 6443, "tissue": 8153, "sensible": 21082, "sa": 7842, "ramirez": 15206, "##\u30cb": 30242, "clause": 11075, "accordingly": 11914, "soviets": 15269, "bikini": 20345, "close": 2485, "bradshaw": 23762, "##zio": 12426, "##aking": 15495, "red": 2417, "lucivar": 21401, "strictly": 9975, "exotic": 12564, "squat": 26783, "##ula": 7068, "ponytail": 18865, "courage": 8424, "##hal": 8865, "unfortunately": 6854, "clenching": 23970, "currency": 9598, "##\u4e0a": 30268, "cade": 18615, "stack": 9991, "mirza": 18366, "change": 2689, "lau": 21360, "legs": 3456, "decrees": 28966, "##eurs": 26744, "02": 6185, "circulating": 22458, "adapted": 5967, "fl": 13109, "gift": 5592, "gabe": 12900, "occupying": 13992, "##gis": 17701, "sought": 4912, "result": 2765, "circling": 18519, "##chule": 20269, "locations": 5269, "##teacher": 24741, "hitler": 8042, "bouquet": 26700, "##zzle": 17644, "gland": 25320, "fascinating": 17160, "##ivist": 21997, "aware": 5204, "stench": 21555, "##lellan": 25839, "rather": 2738, "template": 23561, "1708": 27337, "whiskey": 13803, "##mx": 22984, "1649": 26538, "##bre": 13578, "validity": 16406, "endowed": 19038, "scares": 29421, "##orough": 26388, "soldier": 5268, "illness": 7355, "jefferson": 7625, "ached": 15043, "pinnacle": 26007, "snarl": 24845, "yielded": 17544, "if": 2065, "midtown": 27219, "pill": 17357, "[unused993]": 998, "martyr": 17216, "[unused935]": 940, "##adi": 17190, "criticised": 10648, "detective": 6317, "##\u221e": 30128, "decisions": 6567, "1670": 26253, "snow": 4586, "paso": 17161, "##gingly": 28392, "seductive": 23182, "whipping": 23016, "##hesive": 21579, "emmett": 25685, "schools": 2816, "1987": 3055, "rail": 4334, "##bius": 17028, "develop": 4503, "captivity": 16187, "dotted": 20384, "slight": 7263, "jackie": 9901, "chopper": 28057, "cinematography": 16434, "vimes": 28482, "##\u05d0": 29788, "[unused2]": 3, "approval": 6226, "##\u3078": 30201, "tempered": 22148, "employer": 11194, "amin": 24432, "science": 2671, "[unused453]": 458, "promotes": 14067, "banquet": 19032, "surprised": 4527, "##\u10dd": 29986, "pleas": 22512, "rebuilding": 14584, "evergreen": 16899, "enthusiasts": 20305, "dna": 6064, "sunderland": 15518, "medicare": 27615, "tina": 11958, "coating": 18898, "[unused776]": 781, "##tter": 12079, "trooper": 28224, "\u30aa": 1699, "jackson": 4027, "mitochondrial": 23079, "empirical": 17537, "annapolis": 24889, "clutch": 15357, "retrieval": 26384, "slam": 9555, "dining": 7759, "undo": 25672, "fabulous": 18783, "nazareth": 27192, "michel": 8709, "kenya": 7938, "cameron": 7232, "debates": 14379, "1837": 9713, "directing": 9855, "proposition": 14848, "ars": 29393, "thumbs": 16784, "floats": 24885, "##rove": 17597, "attachment": 14449, "eki": 23174, "rejecting": 21936, "scaling": 25169, "shave": 27545, "arcs": 29137, "\u2076": 1540, "loves": 7459, "mcgraw": 24179, "benevolent": 25786, "wage": 11897, "fletcher": 10589, "seat": 2835, "des": 4078, "marquis": 13410, "mendoza": 18021, "page": 3931, "[unused919]": 924, "259": 25191, "addressing": 12786, "\u3002": 1636, "aggression": 14974, "##zumi": 28114, "national": 2120, "ill": 5665, "\u4eba": 1756, "##\u0baa": 29924, "\u06cc": 1309, "[unused78]": 79, "cornerstone": 23354, "cc": 10507, "evidence": 3350, "doubtful": 21888, "tehran": 13503, "156": 16734, "\u4e09": 1741, "##het": 27065, "[unused390]": 395, "milwaukee": 9184, "##rger": 25858, "emigration": 20387, "zipper": 22082, "##30": 14142, "carrie": 13223, "pointe": 26119, "boosted": 28043, "actress": 3883, "monthly": 7058, "consistency": 18700, "\u0431": 1181, "scale": 4094, "grimaced": 19014, "sabha": 11200, "delhi": 6768, "recalls": 17722, "northeast": 4794, "[unused727]": 732, "struggles": 11785, "physical": 3558, "amir": 18904, "peat": 23366, "performing": 4488, "piloted": 27220, "##sto": 16033, "momma": 23603, "indigenous": 6284, "shifter": 18189, "td": 14595, "##ista": 11921, "\u116e": 1478, "careers": 10922, "curb": 13730, "growls": 27825, "hacked": 28719, "##ions": 8496, "bulls": 12065, "giuseppe": 12574, "effective": 4621, "invited": 4778, "cleaning": 9344, "lay": 3913, "##ek": 5937, "vowed": 18152, "wandering": 13071, "discover": 7523, "metallic": 12392, "##hay": 24180, "deutsche": 11605, "dieter": 27976, "grew": 3473, "occurrence": 14404, "als": 25520, "##ser": 8043, "suspect": 8343, "##dant": 28210, "##\u52dd": 30306, "minds": 9273, "##shu": 14235, "pointedly": 28713, "galway": 14370, "wexford": 23121, "kirk": 11332, "authenticity": 21452, "##\u7684": 30442, "lois": 15815, "comprised": 11539, "flashes": 16121, "addison": 18403, "latin": 3763, "den": 7939, "real": 2613, "sociology": 11507, "soho": 23771, "##adt": 18727, "unofficially": 29322, "itf": 27682, "##\u00bc": 29664, "frankfurt": 9780, "sparta": 21251, "radar": 7217, "exclusive": 7262, "horrible": 9202, "directory": 14176, "sign": 3696, "##yo": 7677, "##iya": 8717, "##load": 11066, "strongest": 10473, "stuffing": 28652, "##rish": 18774, "a2": 22441, "tubular": 25147, "raising": 6274, "sentai": 28650, "employed": 4846, "##\u6c38": 30422, "##avs": 29553, "says": 2758, "eden": 10267, "##lase": 25002, "shouts": 15701, "serialized": 27289, "openings": 16556, "insisting": 22604, "somerset": 9198, "\u5206": 1775, "allocated": 11095, "geraldine": 26987, "wire": 7318, "sufficiently": 12949, "[unused766]": 771, "continue": 3613, "##bb": 10322, "##ddling": 21814, "cutting": 6276, "doncaster": 18895, "fleetwood": 23866, "invariant": 23915, "felony": 24648, "120": 6036, "pauses": 19623, "deliveries": 23534, "trailer": 9117, "281": 22955, "abandon": 10824, "suv": 15620, "1715": 22606, "detached": 12230, "paralysis": 26287, "ivory": 11554, "tortured": 12364, "##orescence": 20030, "\u03b1": 1155, "[unused787]": 792, "##der": 4063, "\u0434": 1184, "swayed": 20122, "chess": 7433, "##tively": 25499, "##rt": 5339, "car": 2482, "fictitious": 23577, "##emi": 23238, "oils": 20631, "##itha": 26054, "hunched": 20498, "79": 6535, "##dled": 20043, "corbett": 24119, "siegfried": 25948, "axes": 19589, "##pies": 13046, "##front": 12792, "\u05e9": 1266, "continuum": 22961, "warwickshire": 18430, "patterson": 12424, "provided": 3024, "drums": 3846, "[unused400]": 405, "wiped": 8342, "##ury": 13098, "bahadur": 21715, "groceries": 26298, "likened": 28834, "##\u6e05": 30429, "sermons": 20855, "valle": 20171, "mahogany": 23867, "retired": 3394, "influenced": 5105, "dust": 6497, "delicate": 10059, "explosive": 11355, "myrtle": 21381, "acheron": 21427, "tc": 22975, "advancing": 10787, "mint": 12927, "socialism": 14649, "##grade": 24170, "headed": 3753, "##lash": 27067, "##isa": 14268, "##wed": 15557, "rubs": 28860, "re": 2128, "killed": 2730, "damaging": 15011, "dental": 11394, "derivatives": 16942, "pulp": 16016, "phantom": 11588, "hogan": 14851, "disdain": 25134, "donnie": 28486, "##house": 4580, "accessible": 7801, "conquer": 16152, "muted": 22124, "1892": 6527, "ukraine": 5924, "protections": 28548, "gripping": 13940, "englishman": 25244, "rainfall": 10101, "[unused969]": 974, "\u20b1": 1575, "[unused701]": 706, "cords": 24551, "turkish": 5037, "comb": 22863, "##dale": 5634, "inverted": 20037, "clasped": 16763, "delayed": 8394, "coffin": 13123, "falsely": 23123, "fond": 13545, "replacements": 23936, "poly": 26572, "hacker": 23307, "[unused773]": 778, "##rrie": 22155, "lawsuit": 9870, "hungarian": 5588, "accent": 9669, "punched": 11696, "sept": 17419, "erasmus": 26809, "202": 16798, "1972": 3285, "emphasize": 17902, "sand": 5472, "damn": 4365, "carpet": 10135, "##lam": 10278, "##rid": 14615, "##dur": 24979, "responding": 14120, "imply": 19515, "administered": 8564, "quebec": 5447, "benton": 18685, "inferior": 14092, "sustain": 15770, "amsterdam": 7598, "homme": 26574, "##\u5b66": 30343, "crimes": 6997, "erosion": 14173, "##chet": 20318, "qualifying": 6042, "1550": 26245, "alpine": 10348, "##gee": 18372, "unmarried": 17204, "metropolis": 18236, "strode": 11885, "gardening": 21529, "britney": 29168, "[unused547]": 552, "downfall": 22252, "dolls": 14421, "bully": 20716, "1815": 10679, "##ars": 11650, "##bc": 9818, "pixels": 27725, "##ino": 5740, "[unused406]": 411, "stressed": 13233, "democracy": 7072, "##pers": 7347, "fading": 14059, "gal": 14891, "1893": 6489, "edward": 3487, "donations": 11440, "purchased": 4156, "lottery": 15213, "ems": 29031, "asserting": 27644, "cloudy": 24706, "##woman": 10169, "rome": 4199, "1910s": 28088, "blush": 16688, "pained": 22295, "##lage": 20679, "condoms": 29094, "##uy": 26230, "et": 3802, "vision": 4432, "[unused512]": 517, "##ists": 5130, "##25": 17788, "[unused58]": 59, "horn": 7109, "qualify": 7515, "matching": 9844, "##neuve": 28104, "reasonably": 16286, "bizarre": 13576, "plaza": 8232, "##ffled": 28579, "pdf": 11135, "celebrating": 12964, "\u7687": 1917, "clauses": 24059, "47": 4700, "balance": 5703, "\uff0d": 1990, "[unused562]": 567, "syntax": 20231, "mode": 5549, "circus": 9661, "moody": 14434, "gatherings": 21403, "sitting": 3564, "##chus": 16194, "##way": 4576, "hour": 3178, "possessive": 22105, "god": 2643, "conference": 3034, "spectra": 29237, "listing": 10328, "##\u1d65": 30045, "lost": 2439, "conveyed": 21527, "##ved": 7178, "font": 15489, "sound": 2614, "##iable": 19210, "\u2084": 1551, "draught": 25349, "conducted": 4146, "##sil": 27572, "ios": 16380, "2008": 2263, "##egorical": 27203, "[unused447]": 452, "phd": 8065, "canyon": 8399, "regrets": 23161, "##thus": 19877, "##sbury": 18065, "execution": 7781, "suez": 21974, "coven": 25248, "exiting": 22371, "situ": 26179, "318": 27003, "[unused102]": 107, "pouring": 13053, "emerges": 19391, "streamlined": 29445, "superintendent": 9133, "disgrace": 29591, "mcpherson": 24332, "zoological": 26168, "transvaal": 28336, "165": 13913, "1784": 16496, "sprung": 22057, "##lkirk": 23913, "islander": 12544, "citing": 8951, "lacked": 10858, "kit": 8934, "##ico": 11261, "meadow": 13244, "##nese": 14183, "collects": 17427, "amp": 23713, "brethren": 17937, "deposited": 14140, "##rov": 12298, "870": 28864, "\u0584": 1239, "##enbach": 21409, "damned": 9636, "\ufb01": 1984, "marketing": 5821, "accepted": 3970, "\u03c1": 1171, "poor": 3532, "top": 2327, "[unused418]": 423, "lange": 21395, "##optera": 25324, "##peed": 25599, "1610": 25800, "proof": 6947, "maui": 28566, "just": 2074, "aquarium": 18257, "##jos": 19929, "creeks": 24974, "drive": 3298, "aspect": 7814, "downed": 20164, "alumnus": 19678, "dt": 26718, "technically": 10892, "##ecure": 29150, "truck": 4744, "motors": 9693, "206": 18744, "moi": 25175, "upstate": 29530, "threatened": 5561, "##\u0636": 29827, "##work": 6198, "lounge": 11549, "##bio": 26282, "brush": 8248, "##polis": 17699, "525": 25621, "fontaine": 25749, "##mberg": 29084, "permit": 9146, "[unused527]": 532, "[unused430]": 435, "homestead": 14473, "vigorous": 21813, "exceeds": 23651, "script": 5896, "\u05e4": 1261, "##ab": 7875, "##pl": 24759, "##izations": 22318, "remains": 3464, "teaser": 27071, "traditional": 3151, "eastwood": 24201, "specimens": 9908, "301": 19123, "##leg": 23115, "preston": 8475, "##\u00a7": 29650, "iconic": 14430, "roughly": 5560, "temeraire": 23611, "brownish": 19437, "##urg": 12514, "##chan": 14856, "sudden": 5573, "voodoo": 21768, "knoxville": 20021, "margaret": 5545, "[unused510]": 515, "implementing": 14972, "sincere": 18006, "galleries": 11726, "gregg": 18281, "endeavor": 23855, "st": 2358, "headlining": 26533, "nur": 27617, "wedge": 17632, "caracas": 21675, "\u30a7": 1697, "haitian": 21404, "weighing": 15243, "stirring": 18385, "serious": 3809, "\u05ea": 1267, "duck": 9457, "beacon": 14400, "prakash": 22233, "spirit": 4382, "parole": 17393, "failed": 3478, "##ve": 3726, "[unused428]": 433, "cass": 16220, "resulted": 4504, "2d": 14134, "hosts": 6184, "aleksandr": 24020, "fossil": 10725, "rule": 3627, "excluding": 13343, "bullock": 25200, "##omorphic": 28503, "##\u2013": 30051, "##vill": 26548, "shells": 10986, "##jiang": 21786, "accounting": 9529, "cathedral": 5040, "fir": 21554, "presenters": 25588, "[unused673]": 678, "##otted": 26174, "##lem": 16930, "##\u6c37": 30421, "incompatible": 25876, "julien": 19290, "bouts": 23666, "231": 20304, "trenches": 19874, "##jean": 27687, "dolphin": 17801, "1910": 4976, "##sit": 28032, "##\u0281": 29694, "level": 2504, "inability": 13720, "##phile": 24862, "bombing": 8647, "finish": 3926, "wheel": 5217, "concourse": 28571, "shrug": 13409, "bees": 13734, "shutting": 17521, "lambda": 23375, "weekdays": 19759, "##aves": 21055, "winery": 23910, "flashing": 12659, "lungs": 8948, "sickness": 15556, "mechanics": 9760, "##key": 14839, "##belt": 21561, "framework": 7705, "##rea": 16416, "epithet": 19626, "##mot": 18938, "bordering": 18299, "\u30e1": 1726, "inactivated": 15663, "slovenian": 16583, "stacked": 16934, "bn": 24869, "trois": 25527, "##\u3048": 30175, "\u2665": 1625, "lennon": 14294, "271": 25103, "repairing": 26296, "horse": 3586, "declared": 4161, "painting": 4169, "harmful": 17631, "busted": 23142, "magnate": 27470, "xx": 22038, "ghz": 29066, "boycott": 17757, "do": 2079, "[unused26]": 27, "##tered": 14050, "##sher": 19603, "narratives": 22143, "lunged": 17755, "sims": 18135, "verbal": 12064, "\u6e05": 1903, "##vius": 26055, "##eli": 20806, "##\u03b5": 29723, "heavily": 4600, "wax": 13844, "fairness": 26935, "guts": 18453, "wilder": 18463, "disgusted": 17733, "##\u116f": 30015, "##urt": 19585, "utter": 14395, "shiver": 13277, "folds": 15439, "nc": 13316, "cruisers": 16722, "conor": 20545, "curving": 21439, "[unused417]": 422, "saturdays": 18860, "##\u0f66": 29972, "bag": 4524, "forbidden": 10386, "clears": 28837, "[unused167]": 172, "furthermore": 7297, "11": 2340, "rancho": 18123, "impaired": 18234, "descriptions": 13271, "reissued": 14805, "\u1107": 1460, "concentration": 6693, "lasers": 23965, "\u65b0": 1862, "light": 2422, "confront": 14323, "reunite": 25372, "whorls": 25637, "sigma": 13201, "diplomats": 23473, "stuffed": 11812, "reiterated": 28960, "archaeologist": 18821, "bent": 6260, "amendment": 7450, "##hid": 27511, "monks": 9978, "status": 3570, "fins": 18564, "##\u2074": 30073, "##\u9762": 30502, "tasted": 12595, "glaring": 16124, "##una": 9521, "abandonment": 22290, "grief": 9940, "roofed": 26080, "oz": 11472, "bayou": 24818, "locking": 14889, "warned": 7420, "vols": 18709, "##\u10e1": 29988, "defense": 3639, "wished": 6257, "##forms": 22694, "roof": 4412, "##sis": 6190, "alleged": 6884, "##\u0645": 22192, "##anu": 24076, "##som": 25426, "seized": 8243, "implementations": 24977, "fis": 27424, "##ej": 20518, "##ters": 7747, "##uki": 14228, "##ffen": 18032, "objects": 5200, "##raya": 29539, "##aith": 22465, "marianne": 19887, "grassland": 20331, "foil": 17910, "winners": 4791, "forums": 21415, "##do": 3527, "lump": 15116, "strengthening": 16003, "deposits": 10042, "transferred": 4015, "motorsports": 20711, "##\u0430": 10260, "##nick": 13542, "##ani": 7088, "##por": 17822, "epilogue": 24297, "##ard": 4232, "taxonomic": 27691, "##\u201c": 30058, "352": 28906, "\u0bc8": 1399, "inexpensive": 23766, "##right": 15950, "narrative": 7984, "mount": 4057, "stemming": 29217, "inhuman": 29582, "w": 1059, "mined": 21846, "pool": 4770, "enactment": 26465, "buster": 18396, "mccoy": 16075, "curiosity": 10628, "hui": 17504, "measurements": 11702, "telegram": 23921, "textiles": 18762, "cancers": 25409, "##sville": 9337, "tori": 23413, "categorized": 20427, "slaughtered": 23044, "shreveport": 23740, "solitude": 22560, "##ecin": 28191, "competes": 14190, "crowd": 4306, "inhabitants": 4864, "##tson": 25656, "fest": 17037, "[unused653]": 658, "used": 2109, "troubles": 13460, "earthquake": 8372, "levine": 17780, "##arts": 20591, "tran": 25283, "vera": 12297, "##nes": 5267, "##cey": 25810, "electron": 10496, "wi": 15536, "zach": 12397, "shelby": 15294, "##ike": 17339, "##grate": 22780, "attacked": 4457, "##tel": 9834, "brought": 2716, "climb": 7105, "spells": 11750, "slovenia": 10307, "innate": 25605, "blasted": 18461, "hercules": 15067, "accessory": 25339, "along": 2247, "pl": 20228, "illustrates": 24899, "##rmi": 28550, "balloon": 13212, "layout": 9621, "hearings": 19153, "hysterical": 25614, "##gni": 29076, "slip": 7540, "##oids": 17086, "burlington": 15552, "deception": 17575, "##dier": 24612, "##chison": 27795, "auditioned": 23008, "[unused953]": 958, "inca": 27523, "tumor": 13656, "\u795e": 1925, "anchors": 24674, "##ge": 3351, "910": 27743, "celaena": 29252, "databases": 17881, "etched": 20286, "##\u0996": 29890, "priory": 14284, "##ules": 16308, "exclusively": 7580, "discourse": 15152, "##kk": 19658, "dia": 22939, "lazy": 13971, "expedition": 5590, "[unused4]": 5, "\u0444": 1199, "guessed": 11445, "biblical": 10213, "lawful": 26410, "philanthropist": 15246, "borg": 28709, "clinical": 6612, "cylinders": 18729, "rover": 13631, "minor": 3576, "##cks": 10603, "ineligible": 22023, "spear": 12341, "rented": 12524, "merlin": 15993, "[unused349]": 354, "##\u53e4": 30315, "kyoto": 15008, "\u00b2": 1082, "[unused844]": 849, "##lio": 12798, "##\u0289": 29697, "dickens": 19675, "\u4fdd": 1766, "##mates": 15416, "##\u5927": 30336, "von": 3854, "\u208d": 1558, "##firmed": 23141, "##ske": 17140, "##oh": 11631, "il": 6335, "midlands": 13256, "physicist": 13702, "characterization": 23191, "##oro": 14604, "plenty": 7564, "##ont": 12162, "##\u0127": 29672, "##kled": 19859, "helps": 7126, "das": 8695, "##writing": 18560, "predatory": 21659, "navigate": 22149, "call": 2655, "affair": 6771, "##\u098f": 29887, "421": 29403, "waking": 12447, "never": 2196, "slave": 6658, "##ins": 7076, "grandma": 13055, "outburst": 27719, "nadu": 10703, "warm": 4010, "almond": 26011, "hid": 11041, "giggling": 21783, "harmon": 25546, "batter": 23801, "database": 7809, "##cs": 6169, "scratching": 20291, "visuals": 26749, "cinema": 5988, "electronics": 8139, "fuselage": 13478, "joe": 3533, "[unused231]": 236, "boilers": 20412, "alt": 12456, "bay": 3016, "exits": 16639, "##\u0965": 29881, "##ryn": 18143, "epoch": 25492, "[unused429]": 434, "##ivo": 20984, "recalling": 21195, "##rane": 18053, "sumner": 23922, "presentation": 8312, "##\u00b4": 29658, "derry": 17455, "1816": 12357, "##jit": 18902, "significantly": 6022, "\uff0e": 1991, "visited": 4716, "somethin": 27941, "lieu": 22470, "\u2248": 1606, "moderately": 17844, "corresponding": 7978, "character": 2839, "##nity": 22758, "kindness": 16056, "learn": 4553, "##rooms": 29020, "grouping": 19765, "laurie": 16450, "##table": 10880, "##ul": 5313, "\u0921": 1321, "##\u30cf": 30244, "ike": 25209, "##berg": 4059, "barely": 4510, "resulting": 4525, "##rya": 20444, "##rangle": 21476, "##kr": 21638, "annoying": 15703, "age": 2287, "resource": 7692, "##chy": 11714, "rockies": 22366, "cotton": 6557, "ramsay": 19460, "jerusalem": 6744, "propeller": 15692, "##\u2093": 30092, "eco": 17338, "burns": 7641, "##ans": 6962, "disrepair": 27799, "mr": 2720, "spins": 23371, "anwar": 28372, "imperfect": 29238, "\u2082": 1549, "##cho": 9905, "hindu": 7560, "posthumous": 19086, "gilbert": 7664, "cushions": 27205, "wrestler": 10706, "shaman": 23610, "sb": 24829, "wanna": 10587, "##ero": 10624, "[unused50]": 51, "shadowed": 25843, "[unused507]": 512, "##bella": 21700, "rogue": 12406, "\u0936": 1336, "guernsey": 24640, "humane": 23369, "sailing": 8354, "##rf": 12881, "##pling": 14353, "##ovo": 16059, "noctuidae": 24893, "passions": 25289, "opaque": 28670, "crown": 4410, "federico": 20493, "1980s": 3865, "mapping": 12375, "##elo": 18349, "overshadowed": 28604, "marie": 5032, "ballads": 18456, "##\u0274": 29690, "yankee": 17652, "lest": 26693, "\u30bb": 1708, "evaluate": 16157, "achievements": 10106, "##ming": 6562, "##mann": 5804, "##tism": 17456, "os": 9808, "longed": 23349, "olga": 15585, "colleagues": 8628, "##ste": 13473, "nominally": 24207, "arboretum": 25197, "##tness": 27401, "##rong": 17583, "stew": 20717, "##dom": 9527, "[unused246]": 251, "credited": 5827, "spectacle": 21177, "vein": 12818, "outcomes": 13105, "escaped": 6376, "apex": 13450, "weaker": 15863, "##nik": 8238, "gandhi": 12338, "voluntarily": 17912, "fairly": 7199, "##\u2261": 30134, "worker": 7309, "1898": 6068, "battlefield": 11686, "[unused109]": 114, "yukon": 19898, "[unused116]": 121, "##\u3093": 30217, "commuter": 14334, "lisa": 7059, "sydney": 3994, "peasant": 14539, "sichuan": 20980, "##\u4ebb": 30283, "\u6c38": 1896, "episodes": 4178, "compulsory": 14770, "##cted": 10985, "provoked": 19157, "untouched": 22154, "invasion": 5274, "monuments": 10490, "##\u0932": 29870, "tugs": 29306, "beheaded": 28923, "##ctuated": 25638, "describe": 6235, "concurrency": 24154, "[unused383]": 388, "##w": 2860, "##cat": 11266, "mating": 15100, "##shaw": 17980, "rothschild": 19712, "##\u10d9": 29982, "[unused786]": 791, "##hale": 15238, "1961": 3777, "leans": 12671, "immersed": 26275, "resonance": 17011, "clarke": 8359, "mixture": 8150, "pius": 14363, "[unused782]": 787, "##eth": 11031, "stepmother": 26959, "##isse": 23491, "1980": 3150, "mystic": 17477, "garry": 21507, "##bat": 14479, "##ums": 18163, "casimir": 24701, "##drop": 25711, "175": 12862, "stole": 10312, "diagonal": 19754, "resembled": 15881, "appearing": 6037, "[unused92]": 93, "vaccines": 28896, "bet": 6655, "##ductive": 26638, "improvement": 7620, "remixes": 15193, "okay": 3100, "systematic": 11778, "gerard": 11063, "pereira": 23857, "cbn": 21824, "causeway": 23336, "stimulating": 27295, "neil": 6606, "consumption": 8381, "endure": 18094, "taxes": 7773, "parliamentary": 5768, "##arded": 28037, "plus": 4606, "greenhouse": 16635, "##kal": 12902, "aux": 19554, "angelica": 19458, "alexa": 24969, "##lic": 10415, "atom": 13787, "vector": 9207, "unanimously": 15645, "##\u00f7": 29669, "liz": 9056, "amateurs": 24361, "osborn": 26999, "enjoying": 9107, "joel": 8963, "##boats": 19468, "athens": 7571, "satisfaction": 9967, "##tial": 20925, "punjabi": 17498, "myths": 17218, "visa": 9425, "cara": 14418, "\u8cb4": 1953, "history": 2381, "[unused933]": 938, "fragments": 10341, "cultivated": 13237, "1685": 25053, "asturias": 26798, "##aca": 19629, "kolkata": 13522, "dismay": 20006, "##nction": 27989, "godfrey": 18238, "business": 2449, "pendant": 23152, "##38": 22025, "##\u516b": 30297, "unreliable": 23579, "blackwell": 18776, "wed": 21981, "rough": 5931, "registry": 15584, "[unused298]": 303, "dancing": 5613, "numerous": 3365, "comrade": 27661, "##\u0582": 29785, "antics": 27440, "bertram": 27515, "slammed": 7549, "nightmare": 10103, "emanuel": 21135, "[unused602]": 607, "mal": 15451, "elementary": 4732, "falcon": 11684, "##fo": 14876, "mexico": 3290, "x": 1060, "buckinghamshire": 21712, "ronan": 18633, "startling": 19828, "driver": 4062, "illusions": 24883, "disbelief": 12537, "pharaoh": 22089, "##athlon": 17563, "georgetown": 12982, "##\u0446": 29751, "seattle": 5862, "##hul": 21886, "##dates": 27122, "chico": 22136, "##formed": 29021, "carver": 20163, "salesman": 18968, "mandela": 26887, "##\u20ac": 30102, "mesa": 15797, "fe": 10768, "meadows": 13524, "beautifully": 17950, "lok": 13660, "trevor": 8672, "angelina": 23847, "variables": 10857, "sparkled": 28092, "drivers": 6853, "cmll": 25395, "emil": 16243, "tired": 5458, "ponds": 16879, "sophisticated": 12138, "##\u266d": 24102, "tone": 4309, "smoothly": 15299, "##cle": 14321, "morality": 16561, "physicians": 11572, "poke": 26202, "moderate": 8777, "pulitzer": 17618, "620": 23612, "##ehan": 24660, "hassan": 13222, "investigations": 9751, "craved": 25155, "\u611b": 1853, "asthma": 26180, "singer": 3220, "##dder": 20791, "maybe": 2672, "imagined": 8078, "##him": 14341, "saskatoon": 25447, "eliminated": 5892, "inquired": 24849, "\u00d7": 1095, "titled": 4159, "survival": 7691, "turned": 2357, "walter": 4787, "awesome": 12476, "##icus": 14239, "hare": 14263, "tis": 22320, "ops": 23092, "hs": 26236, "##anza": 16076, "perpetual": 18870, "ness": 23384, "roads": 4925, "similarities": 12319, "##take": 15166, "enjoyment": 20195, "gui": 26458, "danube": 16212, "##inatory": 28230, "disappointing": 15640, "##ous": 3560, "1771": 20708, "generalized": 18960, "obscene": 27744, "tools": 5906, "defeating": 6324, "commandos": 25144, "progresses": 22901, "##oys": 27153, "arrive": 7180, "##gon": 7446, "harvey": 7702, "rope": 8164, "deals": 9144, "draining": 19689, "##isches": 27239, "faded": 8105, "cairns": 21731, "sitcom": 13130, "\u0454": 1212, "##dis": 10521, "\u2502": 1616, "taller": 12283, "dorset": 15367, "ng": 12835, "activism": 16841, "catherine": 6615, "inspector": 7742, "newark": 12948, "stranded": 15577, "##bit": 16313, "yong": 18999, "wheels": 7787, "glaciers": 21193, "couple": 3232, "wagon": 9540, "toledo": 13163, "price": 3976, "djs": 23837, "dolly": 19958, "chasing": 11777, "catholic": 3234, "evacuate": 22811, "jolly": 22193, "eureka": 21142, "membranes": 24972, "gordon": 5146, "monstrous": 21668, "arrow": 8612, "##hiko": 22204, "anthology": 9637, "##ncies": 14767, "launcher": 22742, "##cola": 26289, "tasting": 18767, "undergraduate": 8324, "packard": 24100, "reintroduced": 28263, "recent": 3522, "dramatic": 6918, "greco": 18180, "knock": 7324, "theorist": 24241, "oleg": 25841, "decidedly": 27873, "entitled": 4709, "ribbon": 10557, "prominence": 12144, "armchair": 29372, "chesapeake": 20867, "lima": 12967, "aviator": 24035, "predecessor": 8646, "nexus": 26041, "gregor": 16973, "pouch": 21445, "fields": 4249, "femme": 26893, "##pel": 11880, "tidy": 29369, "##off": 7245, "##hein": 26496, "ballet": 7250, "nodes": 14164, "##ique": 7413, "metres": 3620, "orchard": 15623, "##gli": 25394, "boer": 19945, "dire": 18704, "touches": 12817, "yates": 20356, "annette": 22521, "##aw": 10376, "bassett": 28303, "darling": 9548, "governor": 3099, "thrilled": 16082, "##cope": 16186, "continual": 27222, "brant": 29182, "##hue": 20169, "mix": 4666, "56th": 29087, "style": 2806, "##edly": 26207, "seminars": 17239, "contenders": 27236, "geese": 28519, "[unused87]": 88, "orioles": 18893, "carthage": 21959, "mollusk": 13269, "\u898b": 1948, "notes": 3964, "lanes": 10914, "burroughs": 25991, "##\u0b9a": 29919, "petition": 9964, "local": 2334, "print": 6140, "primaries": 27419, "##iance": 28335, "belarus": 12545, "announced": 2623, "42": 4413, "dew": 24903, "claudius": 25017, "##\u1161": 30006, "##quay": 25575, "bass": 3321, "archeological": 23005, "sarcastically": 23800, "##\u0449": 29754, "specialists": 15744, "kei": 26679, "tanner": 12780, "lp": 6948, "stakeholders": 22859, "##\u68ee": 30408, "diablo": 28841, "dmitri": 28316, "##\u2019": 30056, "magnetic": 8060, "lightning": 7407, "until": 2127, "bleeding": 9524, "[unused67]": 68, "framed": 10366, "##tarian": 28897, "##keeping": 18321, "affirmative": 27352, "##\u0444": 29749, "donald": 6221, "marvelous": 28851, "connecticut": 6117, "arena": 5196, "neutral": 8699, "##oku": 21940, "servants": 8858, "##cus": 7874, "horrors": 22812, "sheath": 21867, "341": 28358, "1612": 29186, "boots": 6879, "linux": 11603, "##hane": 28006, "strides": 22215, "thesis": 9459, "nature": 3267, "via": 3081, "hazards": 22010, "degraded": 26131, "andrey": 29219, "##bber": 29325, "royce": 14789, "##\u03c8": 29738, "##rdy": 17460, "##de": 3207, "districts": 4733, "##verance": 21998, "interrupt": 17938, "\u2012": 1515, "anhalt": 27088, "##dini": 26039, "float": 14257, "##crats": 23423, "##\u5f18": 30369, "drastic": 23956, "astros": 22058, "pleasures": 26552, "##\u1162": 30007, "pillars": 13766, "bullet": 7960, "##tok": 18715, "passion": 6896, "methyl": 25003, "winthrop": 28974, "##\u0639": 29830, "courthouse": 10816, "russia": 3607, "lacking": 11158, "spruce": 19893, "gregorian": 25847, "caretaker": 17600, "worms": 16253, "corporal": 14265, "volta": 26089, "tenth": 7891, "tuning": 17372, "##hre": 28362, "##nets": 22781, "host": 3677, "constantly": 7887, "otis": 18899, "expressed": 5228, "checking": 9361, "humanity": 8438, "officer": 2961, "acacia": 24766, "elaborate": 9603, "renowned": 8228, "[unused674]": 679, "neighbor": 11429, "davidson": 12017, "relieved": 7653, "##lais": 28704, "nikita": 29106, "parking": 5581, "compilation": 6268, "depends": 9041, "intentions": 11174, "smashed": 14368, "eliminating": 15349, "echoing": 17142, "greatest": 4602, "alain": 15654, "\u0ca8": 1400, "v": 1058, "##\u2113": 30105, "memoir": 12558, "slits": 29199, "newly": 4397, "##mpton": 26793, "overlapping": 20567, "facts": 8866, "issue": 3277, "allergic": 27395, "\u4f50": 1764, "correspondence": 11061, "economical": 21791, "1929": 4612, "##acker": 25418, "renaming": 24944, "mechanically": 27846, "56": 5179, "##ets": 8454, "florida": 3516, "jesse": 7627, "rooney": 24246, "italianate": 25302, "horatio": 27752, "merton": 28169, "simi": 28684, "connections": 7264, "preventing": 10723, "rectory": 24606, "acquisition": 7654, "stewart": 5954, "##\u045a": 29763, "welsh": 6124, "##elt": 20042, "##ply": 22086, "hypothesis": 10744, "##mmy": 18879, "grenades": 21914, "text": 3793, "watch": 3422, "##grapher": 18657, "cellular": 12562, "abu": 8273, "kicked": 6476, "cheerful": 18350, "milestone": 19199, "appropriate": 6413, "fault": 6346, "cognitive": 10699, "sofie": 26359, "##abe": 16336, "employment": 6107, "##tte": 4674, "analogous": 19639, "ardent": 25314, "207": 19843, "[unused31]": 32, "josef": 12947, "199": 20713, "arias": 25905, "kazan": 22001, "sets": 4520, "mega": 13164, "bill": 3021, "gap": 6578, "busiest": 20530, "deux": 24756, "georges": 10870, "turbines": 17396, "ceasefire": 26277, "temperature": 4860, "##kko": 22426, "\u0e40": 1423, "sunglasses": 17072, "##court": 13421, "concord": 16557, "terrain": 9291, "glimpse": 12185, "shelter": 7713, "awe": 15180, "##\u667a": 30395, "wembley": 16538, "##break": 23890, "molly": 9618, "violent": 6355, "##otype": 26305, "pots": 18911, "##gf": 25708, "politely": 16954, "youthful": 22446, "buyer": 17634, "ds": 16233, "faltered": 26015, "hyundai": 25983, "vince": 12159, "##bolt": 22803, "addressed": 8280, "[unused260]": 265, "document": 6254, "##gic": 12863, "1700": 16601, "bubbles": 17255, "guo": 22720, "noticeably": 25327, "recruits": 15024, "mastered": 15682, "overhaul": 18181, "[unused675]": 680, "glint": 25263, "fort": 3481, "software": 4007, "malaysian": 11843, "##genic": 16505, "blind": 6397, "crawley": 28854, "dobson": 27679, "##ire": 7442, "alam": 26234, "philippines": 5137, "sinking": 10186, "foundry": 19853, "1851": 8792, "sheet": 7123, "hampered": 22532, "reagan": 11531, "renew": 20687, "kisses": 8537, "##nche": 26091, "nanjing": 21455, "beamed": 22587, "fighting": 3554, "medication": 14667, "visit": 3942, "309": 25048, "##44": 22932, "##over": 7840, "trance": 16588, "gottfried": 26142, "[unused860]": 865, "fjord": 26158, "##ania": 13241, "[unused538]": 543, "##lium": 21816, "##vot": 22994, "brilliance": 28850, "\u571f": 1801, "immigrants": 7489, "abd": 19935, "councillor": 10674, "[unused423]": 428, "breakthrough": 12687, "bolivar": 22118, "veil": 15562, "symmetry": 14991, "elders": 13376, "##ision": 19969, "gallery": 3916, "gnome": 25781, "##dern": 25888, "stallion": 19122, "sarawak": 21546, "reviews": 4391, "workplace": 16165, "##mill": 19912, "lodges": 26767, "distribute": 16062, "##\u0436": 29743, "katharine": 25739, "vox": 29450, "boardwalk": 29496, "mph": 5601, "##phonic": 27385, "##sms": 19230, "grazed": 26627, "tens": 15295, "##ately": 28239, "##hler": 13620, "cyclones": 26069, "compromised": 20419, "##xton": 14226, "sap": 20066, "stab": 17079, "southern": 2670, "mer": 21442, "##lore": 20186, "pascal": 17878, "monarch": 11590, "leak": 17271, "histoire": 20088, "dishes": 10447, "paved": 12308, "diagnosed": 11441, "remarkably": 17431, "prefer": 9544, "[unused204]": 209, "##\u702c": 30431, "louisa": 15731, "charms": 24044, "replies": 14054, "##ton": 2669, "proto": 15053, "\u2228": 1603, "modifications": 12719, "cartwright": 27513, "sob": 17540, "occasionally": 5681, "abrams": 23063, "##sm": 6491, "banking": 8169, "[unused622]": 627, "objections": 17304, "icon": 12696, "pulls": 8005, "inwardly": 28710, "apart": 4237, "developers": 9797, "endorsed": 11763, "expenditures": 22697, "neuroscience": 23700, "##inations": 22045, "domesday": 22310, "nipples": 28124, "equal": 5020, "infringement": 20701, "bu": 20934, "##pins": 27915, "mentioned": 3855, "4000": 20143, "computation": 22334, "madeline": 16974, "##tino": 25690, "##ometric": 28993, "##\u00f8": 16415, "##tled": 14782, "abroad": 6917, "reflective": 21346, "m1": 23290, "sparkling": 16619, "factories": 11123, "peaked": 6601, "papers": 4981, "paramount": 11734, "scotland": 3885, "##khand": 25910, "subcontinent": 26125, "\u304b": 1651, "patrolling": 24248, "invisible": 8841, "blindly": 25734, "overtime": 12253, "po": 13433, "1984": 3118, "adler": 17969, "features": 2838, "smacked": 19203, "##lone": 27165, "repetition": 23318, "aka": 9875, "insider": 25297, "frowning": 14587, "slender": 10944, "piers": 16067, "levels": 3798, "sampling": 16227, "28": 2654, "collector": 10018, "##mony": 22847, "greens": 15505, "aaron": 7158, "bench": 6847, "##\u661f": 30392, "jonas": 10680, "##ulf": 21007, "##zak": 20685, "glazed": 19724, "skeletal": 20415, "##dling": 14423, "reproduced": 22296, "edmund": 9493, "snoop": 29044, "obsolete": 15832, "lingering": 15304, "trolley": 20820, "\u30b7": 1706, "\u53f8": 1791, "cartoons": 13941, "leased": 12019, "##\u30a8": 30224, "##\u590f": 30334, "policing": 21107, "cannot": 3685, "aerodrome": 23843, "tennis": 5093, "reorganization": 17118, "strengthen": 12919, "tam": 17214, "##ira": 7895, "varsity": 11710, "deadline": 15117, "bismarck": 22029, "extinguished": 27705, "eating": 5983, "##ato": 10610, "mori": 22993, "designs": 5617, "widened": 8723, "apostles": 19178, "ironic": 19313, "[unused79]": 80, "clients": 7846, "eileen": 20495, "valley": 3028, "uncanny": 28953, "mclaughlin": 23720, "study": 2817, "reacher": 22970, "insulting": 23979, "identifiable": 27800, "airlift": 20019, "right": 2157, "##37": 24434, "##rates": 20370, "[unused71]": 72, "##pani": 26569, "francaise": 18427, "shia": 20474, "##chemical": 15869, "[unused846]": 851, "columbia": 3996, "##rip": 29443, "spin": 6714, "textile": 12437, "noises": 14950, "sketches": 12741, "retrieve": 12850, "paranoid": 19810, "320": 13710, "fourier": 26899, "stevenson": 13636, "swinging": 11820, "tormented": 29026, "representing": 5052, "communicate": 10639, "roofs": 15753, "sizable": 25908, "habit": 10427, "egyptian": 6811, "gravel": 11127, "visitation": 28877, "brief": 4766, "fathers": 11397, "nominee": 9773, "stalking": 20070, "farms": 8623, "[unused137]": 142, "swelled": 21851, "beginning": 2927, "oxford": 4345, "researchers": 6950, "105": 8746, "connolly": 21018, "##islaus": 25678, "338": 27908, "norman": 5879, "advised": 9449, "tune": 8694, "##ef": 12879, "freddy": 19343, "campground": 29144, "##\u30c8": 30240, "[unused271]": 276, "[unused395]": 400, "forms": 3596, "bradford": 9999, "complimented": 27175, "##son": 3385, "fill": 6039, "\u7acb": 1931, "murals": 19016, "indexed": 25331, "iso": 11163, "blended": 19803, "gottingen": 23607, "neglected": 15486, "##iot": 25185, "weimar": 20695, "ants": 16111, "328": 25256, "##kiewicz": 28563, "accepting": 10564, "vikings": 13468, "##eding": 17819, "##falls": 28067, "serials": 28172, "anglican": 9437, "##koff": 26126, "providing": 4346, "auguste": 20758, "##ly": 2135, "bred": 13680, "cynthia": 15809, "facing": 5307, "willie": 9893, "anzac": 29224, "coiled": 24599, "[unused86]": 87, "[unused657]": 662, "flotilla": 17150, "conversely": 18868, "saddle": 12279, "lizards": 23898, "boone": 15033, ",": 1010, "possibly": 4298, "odisha": 21874, "hopeful": 17772, "lie": 4682, "covers": 4472, "astonishment": 23819, "fulfill": 13883, "\u0438": 1188, "merely": 6414, "mentor": 10779, "nehru": 23556, "negligence": 27988, "compiler": 21624, "mutual": 8203, "##lide": 24198, "resembles": 12950, "civilized": 25825, "robert": 2728, "championships": 3219, "incidence": 18949, "1604": 28754, "##\u05e6": 29809, "spiders": 14160, "firstly": 15847, "##yana": 16811, "##13": 17134, "athletic": 5188, "wonderland": 20365, "himself": 2370, "\u30c3": 1711, "reinforcements": 14214, "accommodation": 11366, "##\u00b9": 27904, "vishnu": 17647, "candle": 13541, "louisville": 11577, "beirut": 15335, "oppressive": 28558, "instrumentalist": 29253, "##oning": 13369, "powerful": 3928, "robbery": 13742, "estonia": 10692, "ob": 27885, "attends": 23933, "purification": 28406, "##gua": 19696, "cube": 14291, "turnover": 20991, "##ba": 3676, "sweetie": 22872, "ryu": 19367, "##\u02b2": 29707, "clock": 5119, "##tsu": 10422, "[unused555]": 560, "mu": 14163, "exchange": 3863, "suit": 4848, "walks": 7365, "antilles": 27695, "cassidy": 13737, "sentences": 11746, "pga": 14198, "volumes": 6702, "\u5409": 1793, "ernest": 8471, "##ie": 2666, "minute": 3371, "delegation": 10656, "ri": 15544, "bombers": 10544, "intermediate": 7783, "amtrak": 20208, "##maker": 8571, "hawke": 24882, "wave": 4400, "dude": 12043, "rainy": 16373, "engraver": 27771, "ignore": 8568, "conspicuous": 19194, "labs": 13625, "##rent": 22787, "jaws": 16113, "##kos": 15710, "\u056b": 1225, "sep": 19802, "babe": 11561, "1927": 4764, "unsuccessful": 7736, "receptions": 16466, "2": 1016, "airways": 13095, "##chs": 18069, "269": 25717, "##dalen": 26414, "somber": 28587, "storytelling": 20957, "grit": 24842, "colleague": 11729, "elbows": 13690, "lanka": 7252, "donegal": 25415, "polymers": 27216, "paradox": 20506, "beverley": 29057, "ravi": 16806, "stress": 6911, "citation": 11091, "telangana": 23764, "embarked": 11299, "escorted": 13127, "crowned": 10249, "[unused352]": 357, "slams": 25967, "anaheim": 20835, "accuse": 26960, "##\u0e15": 29947, "thud": 20605, "##kar": 6673, "norfolk": 7735, "stratford": 17723, "guido": 20239, "elgin": 23792, "##rod": 14127, "du": 4241, "##\u1d48": 30034, "enforced": 16348, "##stra": 20528, "salazar": 25315, "visibly": 19397, "equity": 10067, "crete": 19111, "stables": 16232, "leaned": 4016, "es": 9686, "wish": 4299, "##itation": 18557, "1783": 15331, "personal": 3167, "300": 3998, "fantasies": 21233, "guardians": 14240, "signed": 2772, "theatrical": 8900, "##ante": 12956, "hm": 20287, "##dge": 11818, "only": 2069, "hawaiian": 12188, "##loading": 18570, "stipulated": 25729, "thy": 15177, "##cats": 19588, "wars": 5233, "welcomed": 10979, "craven": 21232, "hannover": 29209, "##titled": 21309, "carl": 5529, "swim": 9880, "masonry": 18103, "banished": 21319, "gastropod": 10953, "suicide": 5920, "loaned": 13190, "##udy": 20217, "migratory": 22262, "lenny": 19065, "##awan": 25903, "miranda": 9392, "##rva": 19146, "imperial": 4461, "##vent": 15338, "##quette": 29416, "##mare": 24376, "##gano": 29451, "failures": 15428, "dirt": 6900, "##\u00b5": 29659, "mammal": 25476, "ulysses": 22784, "adopt": 11092, "gps": 14658, "loco": 28046, "propellers": 23405, "pumping": 14107, "terminology": 18444, "replication": 21647, "##igen": 29206, "ak": 17712, "equator": 26640, "soaking": 22721, "[unused670]": 675, "advocate": 8175, "##unk": 16814, "maharashtra": 12434, "##rled": 27501, "exceeding": 17003, "tightening": 18711, "feudal": 16708, "barker": 12852, "population": 2313, "unfolded": 23959, "magdalene": 26890, "geometridae": 24687, "##\u1d4f": 30037, "comparison": 7831, "approaching": 8455, "thematic": 23539, "goal": 3125, "confluence": 13693, "away": 2185, "created": 2580, "intimidating": 24439, "##rden": 18246, "conflicting": 19326, "heartbreak": 27724, "crashed": 8007, "edmond": 21773, "##vich": 12933, "##mma": 14760, "\u0452": 1211, "tbilisi": 22406, "stirred": 13551, "campeonato": 17675, "scripts": 14546, "##gum": 22850, "wharton": 24249, "\u0f51": 1428, "##ndi": 16089, "secretive": 28607, "sentence": 6251, "tertiary": 13553, "ang": 17076, "scan": 13594, "##woods": 25046, "leash": 26834, "reich": 14365, "simplest": 21304, "parishes": 11600, "torre": 22047, "##taff": 22542, "involvement": 6624, "##tails": 22081, "[unused757]": 762, "leads": 5260, "##cco": 21408, "1797": 14112, "question": 3160, "teatro": 16038, "possessed": 8679, "1831": 10937, "wary": 15705, "breeds": 15910, "bend": 8815, "##rc": 11890, "mrs": 3680, "donnelly": 28317, "\u03b9": 1163, "\u3075": 1674, "endowment": 15108, "ligue": 18374, "##nh": 25311, "stepped": 3706, "theo": 14833, "frigates": 22833, "wilfred": 26026, "pathways": 16910, "##\u0445": 29750, "##selle": 19358, "assaulted": 17536, "1832": 10212, "##like": 10359, "shin": 12277, "biking": 28899, "adi": 27133, "choi": 18151, "##kei": 29501, "walters": 19097, "scheduling": 19940, "thus": 2947, "syndicated": 13889, "sergei": 14543, "mixing": 6809, "crawled": 12425, "workshops": 9656, "##uding": 24539, "lifelong": 13506, "##boat": 11975, "punishment": 7750, "2020": 12609, "##sation": 26652, "afc": 10511, "##ial": 4818, "gene": 4962, "praise": 8489, "button": 6462, "##cula": 19879, "maldives": 25059, "##rization": 26910, "stephenson": 19789, "rocket": 7596, "333": 21211, "slang": 21435, "conqueror": 25466, "##eus": 10600, "[unused30]": 31, "nyc": 16392, "eel": 24315, "\u00a4": 1070, "suspicion": 10928, "stade": 15649, "##imeters": 28136, "sara": 7354, "oskar": 28626, "1656": 28434, "##gr": 16523, "##ib": 12322, "eugene": 8207, "friends": 2814, "classify": 26268, "##\u2084": 17004, "gorilla": 23526, "wrestlemania": 28063, "mets": 15253, "restraints": 28054, "ud": 20904, "indicted": 21801, "20": 2322, "milne": 24377, "prism": 26113, "gay": 5637, "lilly": 14765, "artifact": 20785, "blogger": 28205, "##\u00ac": 29655, "bold": 7782, "##ntine": 26730, "disorders": 10840, "xiii": 15031, "battled": 19787, "##\u092d": 29866, "leith": 29011, "turmoil": 17930, "bodily": 20445, "assembly": 3320, "strings": 7817, "determination": 9128, "ham": 10654, "casually": 13217, "assassinated": 16370, "revised": 8001, "##eld": 14273, "slash": 18296, "hitchcock": 19625, "##ue": 5657, "nutrition": 14266, "\u9999": 1979, "soundtrack": 6050, "##fold": 10371, "[unused283]": 288, "##path": 15069, "##ardo": 24649, "\u2229": 1604, "implements": 22164, "submission": 12339, "##nica": 12782, "milk": 6501, "masovian": 23703, "##ied": 6340, "finalists": 13527, "##dome": 26173, "brentford": 26550, "1880": 6756, "attending": 7052, "correspondent": 11370, "rockwell": 25235, "\u90e1": 1959, "kenneth": 8856, "indifferent": 24436, "ph": 6887, "afb": 16909, "[unused719]": 724, "run": 2448, "pastures": 24813, "\u21a6": 1588, "position": 2597, "[unused583]": 588, "reporting": 7316, "supplements": 25654, "71": 6390, "churches": 5231, "garrett": 9674, "shoe": 10818, "swift": 9170, "pieter": 23759, "mice": 12328, "133": 14506, "shares": 6661, "vic": 10967, "personalities": 12857, "braced": 15515, "albanians": 25267, "moths": 14885, "##pad": 15455, "broadcasts": 8960, "gum": 16031, "thor": 15321, "##sky": 5874, "##bham": 25522, "netherlands": 4549, "assessments": 20794, "liberal": 4314, "##ball": 7384, "slack": 19840, "nausea": 19029, "[unused323]": 328, "##uz": 17040, "tax": 4171, "##henko": 19767, "kato": 27496, "##fine": 23460, "##mbit": 28878, "##itt": 12474, "control": 2491, "##\u00bd": 13714, "\u1d3a": 1494, "##sque": 17729, "##adan": 26335, "[unused737]": 742, "examined": 8920, "chat": 11834, "234": 22018, "alps": 13698, "##atus": 15590, "cooler": 14976, "anthropologist": 21571, "legislatures": 27977, "tributary": 8914, "henrik": 18745, "[unused370]": 375, "##\u65b0": 30388, "renovation": 10525, "##grass": 19673, "crowns": 24364, "##sner": 20479, "anxiety": 10089, "bharatiya": 24243, "hackney": 28425, "acclaimed": 10251, "viet": 19710, "##enna": 24397, "##hair": 26227, "squire": 21263, "ghostly": 24407, "cheer": 15138, "sheldon": 19369, "##aki": 8978, "layers": 9014, "nikolai": 13870, "eminent": 14953, "[unused465]": 470, "backseat": 19978, "marvel": 8348, "pam": 14089, "approximate": 15796, "lamps": 14186, "romano": 22070, "fallen": 5357, "octagonal": 22340, "obstacle": 18355, "\u09b8": 1376, "gambling": 12219, "anchored": 14453, "serge": 21747, "##pres": 28994, "##ested": 17944, "##igny": 26978, "saints": 6586, "##xide": 19491, "lina": 27022, "##\uff0d": 30516, "enjoys": 15646, "##\u0bbf": 29932, "teased": 13074, "bars": 6963, "reconstruction": 8735, "bays": 13933, "floods": 14295, "pro": 4013, "mckay": 16225, "hezbollah": 25713, "lore": 19544, "[unused279]": 284, "parramatta": 22820, "[unused932]": 937, "quickly": 2855, "fran": 23151, "##ma": 2863, "##rock": 16901, "##xie": 16898, "josephine": 16117, "##\u65b9": 30389, "900": 7706, "##essed": 23656, "prep": 17463, "engines": 5209, "##nium": 14907, "\u1109": 1461, "little": 2210, "psychologist": 15034, "angel": 4850, "##>": 29631, "##ouin": 25058, "printed": 6267, "acknowledges": 28049, "appealed": 12068, "illuminated": 14640, "celtics": 23279, "plate": 5127, "investments": 10518, "##fera": 27709, "dusseldorf": 18160, "lauren": 10294, "colon": 16844, "strike": 4894, "includes": 2950, "\u53f2": 1790, "feud": 13552, "qc": 25196, "medications": 20992, "born": 2141, "gentle": 7132, "guadalajara": 22887, "discovered": 3603, "doug": 8788, "\u10d8": 1445, "1st": 3083, "##itical": 26116, "susanna": 26681, "##ily": 6588, "##iidae": 15648, "##\u548c": 30322, "nix": 23330, "point": 2391, "1885": 6571, "regulation": 7816, "cad": 28353, "deputy": 4112, "bar": 3347, "wilmington": 17025, "justin": 6796, "244": 24194, "nero": 19212, "launches": 18989, "##esian": 25253, "own": 2219, "ts": 24529, "rudy": 18254, "blazed": 25590, "1834": 10700, "char": 25869, "richer": 26108, "pajamas": 27621, "kiel": 20963, "##\u2212": 22543, "lighted": 26390, "butter": 12136, "opposition": 4559, "lsu": 21849, "dismantled": 17293, "##\u21cc": 30118, "illusion": 12492, "optics": 21026, "voted": 5444, "basilica": 13546, "harvest": 11203, "marissa": 22767, "acknowledged": 8969, "[unused749]": 754, "pills": 15345, "wasted": 13842, "noah": 7240, "coming": 2746, "arbitration": 18010, "ist": 21541, "ellen": 9155, "albuquerque": 19334, "issn": 23486, "bulge": 23708, "##\u2091": 30090, "rebelled": 25183, "##nan": 7229, "jump": 5376, "##ou": 7140, "149": 17332, "initiate": 17820, "generates": 19421, "##atz": 20501, "sufi": 21845, "epstein": 26646, "internal": 4722, "[unused62]": 63, "drained": 11055, "swiped": 24452, "spectators": 12405, "343": 27810, "1912": 4878, "[unused873]": 878, "##osa": 8820, "amazingly": 29350, "polite": 13205, "##\u2021": 30062, "retro": 22307, "merritt": 26701, "##cea": 21456, "crane": 11308, "##\u96c4": 30500, "praying": 14488, "\u1162": 1471, "##copic": 26461, "unique": 4310, "tudor": 15588, "mastery": 26364, "mundane": 24684, "bombed": 18897, "##\u304f": 30179, "##ece": 26005, "brew": 24702, "advisers": 24205, "cambridgeshire": 24197, "printers": 23557, "fatigue": 16342, "realization": 12393, "seth": 6662, "platform": 4132, "arizona": 5334, "violence": 4808, "speedway": 10688, "[unused925]": 930, "##\u8cb4": 30479, "aubrey": 18961, "refreshing": 27150, "ussr": 10331, "exceptional": 11813, "sex": 3348, "##hdi": 22960, "italian": 3059, "papa": 13008, "manifestation": 24491, "understood": 5319, "##\u7687": 30443, "tails": 17448, "predominant": 21047, "flowering": 10902, "dialect": 9329, "[unused929]": 934, "1703": 28366, "##hum": 28600, "##kong": 25460, "subdivision": 12572, "##vik": 13309, "trades": 14279, "edited": 5493, "notre": 10289, "asiatic": 23983, "messiah": 22112, "##\u03c3": 29733, "shrines": 22562, "zealand": 3414, "metabolic": 21453, "often": 2411, "anthologies": 25675, "thumping": 25996, "##rre": 14343, "certainly": 5121, "zhou": 14367, "##rling": 22036, "midfielder": 8850, "##inating": 19185, "advances": 9849, "pulsed": 24107, "desktop": 15363, "thief": 12383, "gospels": 24131, "musee": 18070, "anita": 12918, "airborne": 10519, "belle": 9852, "herd": 14906, "jazz": 4166, "buck": 10131, "254": 22234, "souza": 26598, "touching": 7244, "confederates": 24627, "reward": 10377, "fled": 6783, "butcher": 14998, "##dilly": 28832, "buzzed": 21377, "tactical": 8608, "##mura": 16069, "spearheaded": 27721, "\u30a2": 1693, "##\u064a": 14498, "necessary": 4072, "establishment": 5069, "[unused262]": 267, "##rina": 11796, "congress": 3519, "formulation": 20219, "##lated": 13776, "[unused139]": 144, "[unused70]": 71, "takes": 3138, "consuming": 15077, "kinda": 17704, "sensations": 21378, "qualities": 11647, "luxurious": 20783, "dropped": 3333, "##ient": 11638, "##\u99ac": 30506, "engravings": 28611, "wiring": 27930, "fairs": 21947, "pronunciation": 15498, "[UNK]": 100, "##ographer": 26145, "prisons": 15996, "negotiated": 13630, "customary": 16120, "##tment": 21181, "##lan": 5802, "removal": 8208, "51st": 26017, "clark": 5215, "emerald": 14110, "humid": 14178, "500": 3156, "luigi": 15153, "derelict": 28839, "vicious": 13925, "excessive": 11664, "recital": 25521, "erie": 13374, "marcos": 14810, "flock": 19311, "hackett": 28630, "browne": 15005, "amy": 6864, "liechtenstein": 26500, "[unused964]": 969, "##sse": 11393, "santos": 11053, "##film": 23665, "easily": 4089, "##\u02bb": 29711, "clever": 12266, "\u5bae": 1824, "arithmetic": 20204, "wilbur": 26151, "innings": 7202, "##hoff": 17896, "coa": 28155, "\u0565": 1223, "helen": 6330, "horton": 18469, "\u8c9d": 1952, "insight": 12369, "[unused494]": 499, "[unused988]": 993, "outfits": 22054, "##\u05e7": 29810, "clement": 12223, "tokyo": 5522, "judgments": 26186, "marin": 16400, "tyrone": 18770, "##zell": 24085, "hastily": 15789, "sorcerer": 23324, "america": 2637, "##rb": 15185, "##kti": 22462, "wicket": 12937, "argues": 9251, "rush": 5481, "walked": 2939, "trustee": 13209, "avalanche": 18846, "media": 2865, "hua": 23064, "1662": 25909, "rains": 15811, "1820s": 28504, "pear": 28253, "explorers": 19264, "cycle": 5402, "##ritan": 25279, "cleric": 29307, "unlikely": 9832, "peculiar": 14099, "deity": 12764, "[unused656]": 661, "exhaustion": 15575, "##lka": 26518, "parked": 9083, "stucco": 27443, "distinguish": 10782, "boarded": 17383, "steamboat": 24897, "manifested": 24906, "joseph": 3312, "fragmented": 26872, "##inn": 23111, "##yla": 23943, "stocked": 24802, "scandinavia": 20612, "stockings": 26412, "##lved": 26832, "wyoming": 10622, "xander": 29019, "b1": 29491, "##\u4e2d": 30272, "og": 13958, "receptionist": 23775, "[unused339]": 344, "mathematical": 8045, "##bf": 29292, "ala": 21862, "##roller": 26611, "##roll": 28402, "resumed": 7943, "footage": 8333, "spreading": 9359, "banded": 25264, "bhutan": 18768, "intervals": 14025, "neck": 3300, "sampson": 22041, "chassis": 11832, "nrhp": 22424, "barnet": 26864, "landfill": 28382, "essen": 29032, "mateo": 19327, "lays": 19764, "\u057e": 1235, "tapes": 13324, "##eaux": 25639, "successfully": 5147, "anywhere": 5973, "##nation": 9323, "[unused761]": 766, "andover": 29463, "propelled": 15801, "global": 3795, "laos": 15786, "##usia": 24118, "eun": 26070, "legends": 9489, "narrow": 4867, "flute": 8928, "6th": 5351, "teenage": 9454, "48": 4466, "[unused403]": 408, "##ctric": 22601, "00pm": 27995, "##yra": 19563, "obviously": 5525, "single": 2309, "sava": 28350, "pearson": 12874, "stripping": 23987, "##fia": 22749, "quivering": 26012, "graceful": 19415, "collapses": 25938, "dim": 11737, "##lar": 8017, "aids": 8387, "##bbe": 19473, "##\u0f54": 29966, "236": 23593, "##gc": 18195, "##ien": 9013, "[unused586]": 591, "imported": 10964, "##een": 12129, "progress": 5082, "##kki": 24103, "keeping": 4363, "pole": 6536, "ridden": 15230, "mommy": 20565, "ages": 5535, "adjutant": 20690, "bed": 2793, "gleamed": 25224, "##non": 8540, "rhythms": 17900, "##vis": 11365, "##holz": 28094, "relatives": 9064, "ankles": 15392, "evenings": 16241, "manny": 16320, "roaring": 17197, "loyalty": 9721, "tong": 15740, "##tus": 5809, "bland": 20857, "belief": 6772, "speeding": 21485, "[unused604]": 609, "[unused909]": 914, "parc": 27985, "##aneous": 17191, "##rrow": 28597, "kept": 2921, "biplane": 28686, "bounded": 10351, "\u30ce": 1717, "aura": 15240, "224": 19711, "bellamy": 25544, "[unused182]": 187, "he": 2002, "wild": 3748, "\u4eac": 1755, "##ander": 12243, "claw": 15020, "core": 4563, "kansas": 5111, "cv": 26226, "lemon": 14380, "analyzing": 20253, "horizontally": 23190, "limitations": 12546, "cm": 4642, "kaufman": 23699, "tenure": 7470, "prominently": 14500, "spit": 13183, "bollywood": 16046, "hoped": 5113, "lagos": 16738, "battling": 17773, "excursion": 26144, "deeds": 15616, "olivia": 7710, "see": 2156, "limestone": 9771, "yarmouth": 28792, "artworks": 22000, "\u0bb5": 1394, "crafts": 14030, "contrasts": 23347, "leaning": 6729, "publicly": 7271, "##written": 15773, "paw": 22195, "stirling": 15597, "humboldt": 19249, "\u0441": 1196, "\u77f3": 1922, "##vus": 27500, "reverend": 10547, "##dian": 11692, "\u0449": 1204, "[unused588]": 593, "##rgan": 16998, "where": 2073, "gaza": 14474, "##ole": 9890, "1665": 27676, "fielded": 20988, "importance": 5197, "##anies": 28064, "letters": 4144, "resigned": 5295, "marching": 10998, "vanish": 25887, "pornography": 19378, "\u2122": 1580, "casper": 24602, "rotherham": 27456, "successors": 18530, "stalled": 20659, "creditors": 23112, "##bridge": 6374, "targets": 7889, "justices": 19867, "circuits": 13782, "ile": 17869, "thorpe": 20249, "1991": 2889, "examines": 20798, "carnage": 27450, "\u0cbe": 1402, "relatively": 4659, "##cd": 19797, "##jun": 19792, "substances": 13978, "fallon": 16443, "partisans": 20762, "binoculars": 29549, "mandates": 25979, "cyclists": 21912, "jennifer": 7673, "domed": 29208, "chemicals": 12141, "allowing": 4352, "maynard": 22130, "summarized": 22539, "faber": 21720, "moines": 23286, "##lights": 15733, "##\u043e\u0432\u0438\u0447": 16198, "marlon": 25861, "joao": 16304, "rayon": 26810, "transform": 10938, "sleeps": 25126, "[unused740]": 745, "curses": 23897, "wrongly": 29116, "designed": 2881, "jug": 26536, "klaus": 16536, "garland": 17017, "regulator": 21618, "##dna": 28911, "legendary": 8987, "##inator": 23207, "thomas": 2726, "branching": 23346, "1733": 27230, "into": 2046, "midway": 12213, "warsaw": 8199, "##typical": 27086, "[unused733]": 738, "botany": 17018, "reunion": 10301, "drawing": 5059, "susan": 6294, "ganga": 28646, "##\u05d1": 29789, "stadium": 3346, "greaves": 27808, "woolf": 29572, "##\u5ba3": 30349, "petite": 20146, "bro": 22953, "##\u9580": 30494, "##\u2c7c": 30157, "##tm": 21246, "grocery": 13025, "education": 2495, "gabrielle": 16988, "[unused28]": 29, "historian": 5272, "registers": 18687, "syllable": 16353, "expression": 3670, "whoa": 23281, "##nery": 27415, "shrimp": 20130, "69": 6353, "susquehanna": 26361, "##\u06a9": 29841, "reigned": 21236, "quaker": 18844, "##pit": 23270, "assign": 23911, "nba": 6452, "rotational": 25254, "u": 1057, "writing": 3015, "##ful": 3993, "grammar": 8035, "rhine": 10950, "trial": 3979, "##ake": 13808, "broncos": 14169, "pacing": 15732, "##oran": 18842, "sewer": 22365, "##\u1106": 29995, "bronze": 4421, "##\u300a": 30165, "##\u4f8d": 30291, "wil": 19863, "expect": 5987, "thai": 7273, "[unused401]": 406, "favorites": 20672, "##\u306d": 30196, "##sas": 20939, "ion": 10163, "periodic": 15861, "waltz": 17569, "\u094b": 1343, "\u2092": 1562, "aims": 8704, "[unused377]": 382, "obe": 15578, "##pw": 28400, "pink": 5061, "##nch": 12680, "1930": 4479, "handled": 8971, "semitic": 20604, "##than": 21604, "succeeds": 21645, "##ality": 23732, "vu": 24728, "transferring": 14391, "kurdistan": 23627, "inception": 12149, "honours": 8762, "announcing": 13856, "redundant": 21707, "attempts": 4740, "fluent": 19376, "mule": 20568, "stake": 8406, "que": 10861, "philip": 5170, "##\u1d47": 30033, "orbits": 20347, "anguish": 21782, "together": 2362, "\u056f": 1227, "cavaliers": 25096, "\u1100": 1455, "orthodox": 6244, "proposes": 17146, "elsa": 23452, "##15": 16068, "bryan": 8527, "safer": 13726, "##\u1d35": 30029, "##urable": 23086, "##\u9547": 30492, "\u5289": 1777, "##ggles": 24989, "play": 2377, "wrestling": 4843, "unbelievable": 23653, "1779": 17616, "/": 1013, "broke": 3631, "contributing": 8020, "[unused763]": 768, "notch": 18624, "autism": 19465, "##utive": 28546, "turbulent": 22609, "bathing": 17573, "eduardo": 14846, "##ch": 2818, "ho": 7570, "##ruff": 26919, "##\u2248": 30133, "acoustic": 6490, "##24": 18827, "fc": 4429, "pair": 3940, "heavens": 17223, "spacious": 22445, "scratched": 15047, "daring": 15236, "corner": 3420, "scratch": 11969, "mane": 23055, "conclude": 16519, "##\u793a": 30449, "romeo": 12390, "##wyl": 27740, "##tt": 4779, "greeted": 11188, "brigham": 22727, "hopper": 20517, "##ha": 3270, "[unused643]": 648, "conditioned": 22442, "weathered": 28445, "##word": 18351, "agitation": 22356, "253": 23254, "##bation": 23757, "\u2085": 1552, "australian": 2827, "##ang": 5654, "dc": 5887, "thanked": 15583, "nwa": 15737, "woman": 2450, "\u2212": 1597, "##\u4eee": 30287, "felipe": 17095, "[unused549]": 554, "seller": 14939, "gorge": 14980, "thorn": 16337, "introduced": 3107, "convicted": 7979, "javelin": 23426, "##ores": 16610, "salary": 10300, "blink": 12373, "fraternity": 13577, "fortunately": 14599, "mutations": 14494, "pottery": 11378, "##com": 9006, "waist": 5808, "whistle": 13300, "pinning": 22866, "##opus": 24676, "##ments": 8163, "centimetres": 13935, "mgm": 15418, "susceptible": 18002, "amounted": 18779, "westfield": 26584, "fernandez": 12023, "bump": 16906, "potsdam": 26554, "joyce": 11830, "profoundly": 28089, "[unused278]": 283, "kiss": 3610, "caledonian": 27449, "lucinda": 28261, "##\u30bf": 30235, "##rogate": 21799, "rican": 13641, "affectionately": 28734, "synonym": 10675, "triumph": 10911, "sanskrit": 11353, "thistle": 24328, "sar": 18906, "##\u0e2a": 29956, "slightly": 3621, "##ado": 9365, "\u1105": 1458, "leukemia": 25468, "fumbled": 20054, "ravaged": 25537, "oboe": 22523, "marek": 29318, "supernatural": 11189, "pleading": 16418, "bridge": 2958, "blog": 9927, "cheap": 10036, "gardner": 11764, "sheikh": 12840, "##dent": 16454, "mcqueen": 29265, "norway": 5120, "besieged": 17923, "online": 3784, "saddam": 24111, "caleb": 10185, "##gna": 16989, "kitchens": 26051, "sandstone": 11694, "bypass": 11826, "dominican": 10104, "##rro": 18933, "angrily": 14136, "##rts": 21217, "##cloth": 23095, "southend": 26104, "bungalow": 27563, "vehicles": 4683, "mil": 23689, "guinness": 17323, "pigs": 14695, "##tung": 21847, "ted": 6945, "harp": 14601, "##iest": 10458, "fractures": 28929, "dispersed": 15484, "drifting": 15013, "rd": 16428, "wanda": 20848, "bangladesh": 7269, "biology": 7366, "ibn": 7839, "##in": 2378, "ecuador": 10378, "neighbourhood": 10971, "hooded": 21592, "[unused192]": 197, "##\u0621": 29815, "varies": 9783, "##saka": 29289, "solar": 5943, "munchen": 25802, "##\u58eb": 30333, "sexually": 12581, "parcels": 28998, "xinjiang": 25904, "specifies": 27171, "##fat": 27753, "##sy": 6508, "travellers": 19284, "madam": 21658, "packaging": 14793, "negatively": 19762, "gabled": 26182, "335": 24426, "intra": 26721, "number": 2193, "##ente": 15781, "learnt": 20215, "##wife": 19993, "##\u306f": 30198, "autonomous": 8392, "slamming": 15209, "license": 6105, "cottage": 9151, "##oda": 13390, "handling": 8304, "psyche": 25774, "timetable": 23839, "voltage": 10004, "##43": 23777, "##nded": 25848, "[unused558]": 563, "##lster": 29576, "kaladin": 22588, "acquainted": 19056, "lucky": 5341, "existent": 25953, "composer": 4543, "dubai": 11558, "costume": 9427, "defeats": 14222, "ethnicity": 18240, "##oat": 16503, "##sby": 14478, "landowners": 20152, "##\u09b0": 29908, "[unused304]": 309, "##scopic": 24895, "circa": 12800, "botswana": 19414, "carrying": 4755, "ritter": 23168, "[unused225]": 230, "[unused792]": 797, "\u00ae": 1079, "performance": 2836, "require": 5478, "pursuit": 8463, "morton": 11164, "cracking": 15729, "##rita": 17728, "orson": 25026, "norwood": 22804, "\u7ae0": 1932, "woven": 17374, "978": 4891, "tonnes": 11000, "casual": 10017, "bis": 20377, "trinity": 7124, "mikhail": 11318, "rodgers": 15652, "##drick": 24092, "helmut": 24515, "afterwards": 5728, "filthy": 18294, "antioch": 19078, "blitz": 22312, "downwards": 28457, "ryan": 4575, "largest": 2922, "craft": 7477, "panzer": 16946, "prosecuted": 21651, "##lat": 20051, "bandwidth": 20235, "##\u03bd": 16177, "perry": 6890, "speculation": 12143, "years": 2086, "unaware": 11499, "##put": 18780, "multiplication": 24856, "sponsors": 13162, "tigers": 7600, "\u10db": 1448, "##ioned": 19798, "##tray": 28473, "[unused209]": 214, "[unused845]": 850, "##ki": 3211, "were": 2020, "tragedy": 10576, "aero": 18440, "skins": 21049, "[unused618]": 623, "except": 3272, "zoo": 9201, "holt": 12621, "subdued": 20442, "nee": 7663, "[unused520]": 525, "laps": 10876, "pt": 13866, "overthrow": 16857, "##ogenic": 24278, "introductions": 25795, "partridge": 26079, "##lei": 23057, "saber": 25653, "rectangular": 10806, "convict": 20462, "different": 2367, "\u0582": 1238, "reveal": 7487, "lagoon": 15825, "flexibility": 16991, "libertadores": 27968, "bromley": 27979, "baritone": 14458, "notation": 14869, "refuses": 10220, "km": 2463, "\u90ce": 1958, "favorite": 5440, "rees": 22131, "##llas": 25816, "yoo": 26823, "electrification": 23679, "dover": 13985, "cellar": 15423, "electoral": 6092, "[unused128]": 133, "savanna": 22323, "wrapped": 5058, "##oof": 21511, "simon": 4079, "##rard": 25561, "steep": 9561, "\u0578": 1232, "##urn": 14287, "chennai": 12249, "##\u30d5": 30246, "beneath": 4218, "goes": 3632, "stall": 13498, "chaplain": 14011, "proctor": 28770, "bonus": 6781, "smirk": 15081, "interfere": 15115, "##lous": 15534, "chatter": 24691, "paulo": 9094, "payne": 13470, "##itating": 16518, "emilia": 20417, "secretariat": 15128, "##nad": 25389, "southport": 27494, "chilling": 27017, "resting": 8345, "mischievous": 25723, "[unused416]": 421, "expansive": 25145, "##hire": 20908, "allow": 3499, "om": 18168, "ie": 29464, "dauphin": 29102, "five": 2274, "hampstead": 29557, "planting": 14685, "series": 2186, "auditions": 21732, "kant": 26044, "parrot": 22530, "##heads": 13038, "weapon": 5195, "hair": 2606, "liturgy": 21176, "##acious": 20113, "##\u03ba": 29726, "parkinson": 20310, "[unused626]": 631, "##rith": 24292, "tuition": 15413, "labour": 4428, "crashing": 12894, "peter": 2848, "chris": 3782, "haze": 16332, "landfall": 21042, "amalgamated": 17143, "##mut": 28120, "surveyed": 12876, "prospect": 9824, "##burn": 8022, "group": 2177, "##christ": 26654, "##dy": 5149, "victory": 3377, "wake": 5256, "defiance": 19674, "##\u02e2": 29717, "opposite": 4500, "breach": 12510, "##tara": 27115, "dali": 29095, "directorate": 13634, "vivid": 14954, "dwarf": 11229, "sardinia": 21594, "decreasing": 16922, "cold": 3147, "mellon": 22181, "amc": 21962, "artistic": 6018, "##jar": 16084, "leagues": 8121, "cloak": 11965, "##hp": 22269, "\u09ae": 1370, "##it": 4183, "danish": 5695, "shi": 11895, "comparing": 13599, "infection": 8985, "scouts": 10158, "radial": 15255, "relate": 14396, "midnight": 7090, "condom": 20910, "watson": 7908, "midday": 22878, "mundo": 25989, "things": 2477, "bewildered": 24683, "##games": 26393, "##nas": 11649, "##bound": 15494, "crazed": 28343, "lionel": 14377, "soon": 2574, "##vas": 12044, "recognizes": 14600, "##\u6c35": 30420, "seated": 8901, "kyiv": 25669, "##\uff0f": 30518, "[unused18]": 19, "forty": 5659, "self": 2969, "puebla": 27452, "allocation": 16169, "##iom": 18994, "irs": 25760, "suspense": 23873, "##x": 2595, "china": 2859, "##and": 5685, "hips": 6700, "owning": 19273, "copenhagen": 9664, "sync": 26351, "comical": 29257, "maturity": 16736, "adopted": 4233, "santiago": 8728, "##buck": 24204, "delgado": 26532, "##ulin": 18639, "##vers": 14028, "##sta": 9153, "##ghton": 21763, "guns": 4409, "1970s": 3955, "gate": 4796, "frustrated": 10206, "diary": 9708, "maintained": 5224, "##jian": 27685, "##oit": 28100, "analyze": 17908, "halle": 19769, "##\u1d30": 30028, "##rma": 17830, "invitations": 29492, "improvised": 19641, "purse": 8722, "##ory": 10253, "\u093e": 1340, "greenland": 16128, "transitions": 22166, "setting": 4292, "lumber": 13891, "variant": 8349, "leone": 13363, "ye": 6300, "1934": 4579, "peerage": 18760, "increase": 3623, "affiliation": 12912, "serie": 8668, "michigan": 4174, "evelyn": 12903, "grandmaster": 27101, "combat": 4337, "bud": 13007, "##ldon": 19932, "kissing": 7618, "fingertips": 12206, "shorts": 9132, "emotion": 7603, "gareth": 20243, "thirst": 21810, "demetrius": 28367, "gretchen": 21625, "emir": 23434, "reports": 4311, "boon": 23264, "\u1d58": 1506, "blake": 6511, "##mp": 8737, "affairs": 3821, "peacock": 18931, "dockyard": 24874, "##tious": 20771, "biggest": 5221, "##sso": 24137, "cod": 19429, "ib": 21307, "average": 2779, "hemisphere": 14130, "##so": 6499, "organized": 4114, "relaxed": 8363, "businessman": 6883, "##qui": 15549, "hobart": 14005, "en": 4372, "lola": 15137, "scenarios": 16820, "sentiments": 23541, "pharmaceutical": 13859, "latvia": 12429, "\u00b0c": 6362, "darted": 14051, "parent": 6687, "poisoned": 17672, "freighter": 27945, "croats": 26222, "functioned": 20903, "demanded": 6303, "pointing": 7302, "displeasure": 28606, "[unused490]": 495, "dipping": 23427, "8": 1022, "talks": 7566, "violation": 11371, "ancestors": 10748, "##quent": 15417, "##hiro": 18334, "stylistic": 24828, "techno": 21416, "expert": 6739, "\u0916": 1316, "invention": 11028, "##\u09ac": 29904, "compiled": 9227, "explanation": 7526, "newcastle": 8142, "brno": 28634, "[unused82]": 83, "characteristic": 8281, "subsidiary": 7506, "##\u11a8": 30020, "1951": 4131, "mayhem": 26865, "karate": 16894, "frontiers": 28750, "macon": 20025, "tempted": 16312, "murder": 4028, "sounded": 5015, "valuation": 26004, "door": 2341, "positioned": 10959, "torn": 7950, "loosen": 29476, "gram": 13250, "hardcore": 13076, "worse": 4788, "accession": 16993, "breast": 7388, "elected": 2700, "canadians": 16485, "hormone": 18714, "techniques": 5461, "##bly": 6321, "disqualified": 14209, "sunrise": 13932, "ethernet": 26110, "cable": 5830, "fungus": 16622, "2011": 2249, "illustrations": 11249, "##hore": 16892, "##\u1110": 30003, "times": 2335, "andersen": 18308, "wink": 16837, "vatican": 12111, "steward": 17946, "accelerating": 29494, "[unused565]": 570, "andreas": 12460, "upbeat": 27999, "fluids": 20989, "rouge": 12801, "staples": 24533, "barracks": 10492, "[unused577]": 582, "intersection": 6840, "orphan": 18211, "sheltered": 18304, "hooked": 13322, "##rift": 16338, "difficulty": 7669, "assessing": 20077, "cruise": 8592, "lydia": 14076, "argentine": 8511, "##aly": 20766, "emigrated": 11367, "##ople": 27469, "refugees": 8711, "ministers": 7767, "##lag": 17802, "traumatic": 19686, "##iary": 17302, "uber": 19169, "1904": 5692, "##rated": 9250, "wolf": 4702, "qin": 19781, "breathe": 7200, "unicode": 27260, "plainly": 24250, "pinch": 18392, "periodicals": 21855, "ideas": 4784, "##tan": 5794, "260": 13539, "darcy": 17685, "bastards": 21123, "##eran": 23169, "##tera": 14621, "\u057f": 1236, "lister": 27177, "defeated": 3249, "bergen": 12674, "##lewood": 26580, "tentatively": 19325, "\u3080": 1679, "[unused97]": 98, "pia": 24624, "we": 2057, "mughal": 17877, "worry": 4737, "##oga": 18170, "\u0f42": 1426, "introduce": 8970, "##wind": 11101, "[unused690]": 695, "##umi": 12717, "nathaniel": 13961, "169": 18582, "jett": 22962, "imaginative": 28575, "ting": 28642, "mcgill": 17919, "##\u05e5": 29808, "civilizations": 24784, "detachment": 11009, "##ose": 9232, "parting": 20254, "profession": 9518, "holden": 9988, "facilitate": 10956, "minister": 2704, "strait": 11195, "finishing": 5131, "billboard": 4908, "14th": 6400, "disagreed": 18335, "##vera": 26061, "utmost": 27917, "phosphate": 17344, "##\u90e8": 30486, "[unused585]": 590, "prosperity": 14165, "##ing": 2075, "750": 9683, "terrifying": 17082, "arabs": 14560, "generate": 9699, "sticks": 12668, "##emann": 17545, "spaniards": 20999, "obligations": 14422, "prose": 12388, "nat": 14085, "partnered": 12404, "sped": 16887, "robbins": 18091, "cheng": 15898, "##oud": 19224, "maia": 23478, "biography": 8308, "fk": 14352, "cleansing": 26799, "farmer": 7500, "##thi": 15222, "##dding": 27027, "hoffmann": 24437, "slices": 25609, "41st": 24233, "marx": 13518, "principally": 16552, "690": 28066, "##\u0458": 29761, "loss": 3279, "litre": 16812, "vedic": 25824, "way": 2126, "va": 12436, "seater": 23392, "couldn": 2481, "[unused609]": 614, "congregational": 20809, "figure": 3275, "prevalent": 15157, "toad": 21344, "goats": 17977, "attitude": 7729, "palais": 22113, "##ucher": 22368, "##mmon": 24521, "chan": 9212, "apostolic": 11815, "##\u0290": 29702, "sporadic": 24590, "newspaper": 3780, "prologue": 18877, "flex": 23951, "##ett": 6582, "fundamental": 8050, "000": 2199, "laurel": 11893, "##trum": 24456, "\u4e4b": 1749, "desmond": 16192, "won": 2180, "undermine": 25174, "peg": 25039, "paying": 7079, "##olo": 12898, "pretended": 14688, "heats": 18559, "eyes": 2159, "undertaken": 10607, "residing": 7154, "abandoning": 19816, "hereditary": 14800, "murmured": 7152, "pace": 6393, "sax": 19656, "prowess": 26120, "insert": 19274, "weren": 4694, "wilkins": 22745, "indus": 27746, "raise": 5333, "##uno": 27819, "confidently": 28415, "wharf": 16435, "flowers": 4870, "pillows": 17860, "footballer": 4362, "aerial": 9682, "knows": 4282, "longer": 2936, "excuse": 8016, "##\u043d": 18947, "kazakh": 25907, "assessment": 7667, "reed": 7305, "\u03c5": 1175, "submarines": 12622, "##yce": 29297, "match": 2674, "christianity": 7988, "implies": 12748, "##\u1165": 30008, "evenly": 18030, "##ads": 19303, "vie": 20098, "[unused57]": 58, "anyway": 4312, "zeta": 23870, "##\u674e": 30403, "hamburg": 8719, "bellevue": 26756, "eternal": 10721, "yourselves": 25035, "friendship": 6860, "reversed": 11674, "cecil": 11978, "william": 2520, "hal": 11085, "##apa": 22068, "255": 20637, "aggressive": 9376, "obedience": 22645, "hillside": 18573, "ld": 25510, "##46": 21472, "*": 1008, "heidi": 21372, "##gl": 23296, "##\u0648": 29836, "\u30a1": 1692, "##nar": 11802, "miscellaneous": 25408, "june": 2238, "dec": 11703, "squad": 4686, "contradiction": 26917, "association": 2523, "subject": 3395, "violins": 25877, "favourites": 28271, "repeated": 5567, "ghana": 9701, "powder": 9898, "##dner": 28001, "boarding": 9405, "tent": 9311, "boulevard": 8459, "shades": 13178, "asha": 24595, "commissioners": 12396, "visas": 24487, "continuity": 13717, "[unused313]": 318, "markedly": 29295, "growling": 22413, "##ska": 8337, "mister": 12525, "##ving": 6455, "popularity": 6217, "niger": 16842, "##ouring": 27897, "##eum": 14820, "logic": 7961, "frontman": 21597, "1672": 27253, "bahamas": 17094, "yearbook": 24803, "nasser": 26099, "roadside": 25131, "replicate": 28024, "[unused412]": 417, "139": 16621, "flatly": 24295, "rim": 11418, "##cr": 26775, "1609": 28058, "sleeve": 10353, "yells": 22114, "bald": 13852, "wired": 17502, "\u1161": 1470, "##air": 11215, "##culus": 28703, "\u58eb": 1807, "johann": 8968, "##insky": 20894, "castes": 26254, "##tist": 16774, "##eville": 21187, "lobster": 27940, "covenant": 16077, "space": 2686, "##own": 12384, "##drome": 29171, "custody": 9968, "foster": 6469, "[unused893]": 898, "rovers": 9819, "##raf": 27528, "effectively": 6464, "ghosts": 11277, "afford": 8984, "adequate": 11706, "##bei": 19205, "dictionary": 9206, "laced": 17958, "following": 2206, "baptized": 19775, "##bilis": 27965, "1899": 6166, "topped": 9370, "rc": 22110, "##qi": 14702, "crotch": 28629, "options": 7047, "aren": 4995, "gunslinger": 29274, "suns": 19352, "loud": 5189, "promoters": 26512, "sheen": 20682, "minors": 18464, "hannibal": 24181, "musician": 5455, "justify": 16114, "[unused91]": 92, "grunted": 14922, "lover": 7089, "japan": 2900, "compositions": 9265, "falkland": 25257, "included": 2443, "##umble": 26607, "congresses": 24460, "sources": 4216, "schoolhouse": 26301, "translator": 11403, "tirana": 24631, "imports": 17589, "methodology": 16134, "walnut": 18489, "##backs": 12221, "wasn": 2347, "wally": 18202, "rooms": 4734, "those": 2216, "pedestal": 24496, "##oli": 10893, "ua": 25423, "canterbury": 9976, "kamen": 22099, "graduates": 10845, "canberra": 13107, "##uing": 25165, "sit": 4133, "brunette": 27261, "inheritance": 12839, "[unused240]": 245, "mead": 19855, "likely": 3497, "secrecy": 20259, "curled": 8188, "montagu": 26241, "1726": 28342, "full": 2440, "bach": 10384, "threaded": 26583, "\u1d43": 1496, "weaknesses": 21775, "carried": 3344, "libby": 19533, "##zione": 20574, "##uance": 26620, "furrowed": 20555, "83": 6640, "glamorgan": 23861, "rms": 29311, "specializes": 16997, "shay": 18789, "##\u2099": 19110, "growled": 8881, "tear": 7697, "requested": 7303, "algae": 18670, "magnus": 10045, "realms": 18814, "manufactures": 22027, "uniquely": 20640, "twenty20": 22240, "sheds": 25999, "remade": 26943, "1810": 11786, "##ave": 10696, "##ologies": 20792, "273": 25371, "malaga": 27382, "##ram": 6444, "surrendered": 10795, "airplay": 15341, "neoclassical": 22657, "humour": 17211, "[unused338]": 343, "\u0935": 1335, "christy": 21550, "domino": 23968, "##\u0563": 29768, "implementation": 7375, "mustafa": 19683, "##eses": 23072, "betting": 19244, "##\u1102": 29992, "smarter": 25670, "banged": 22843, "aramaic": 28934, "pressing": 7827, "\u0e15": 1411, "##tos": 13122, "laughter": 7239, "\u516b": 1771, "darius": 14861, "gala": 16122, "finalized": 23575, "groin": 20092, "barbie": 22635, "##rdo": 20683, "terra": 14403, "rapper": 10687, "##\u027e": 29692, "occasions": 6642, "jumper": 21097, "conquered": 11438, "enemy": 4099, "hurling": 10839, "mission": 3260, "scholarships": 15691, "kv": 24888, "##ites": 7616, "bore": 8501, "##\u2015": 30053, "unmistakable": 24219, "peyton": 17931, "strangled": 21384, "gustav": 13430, "cassandra": 15609, "another": 2178, "affiliates": 18460, "goth": 25976, "fits": 16142, "yearly": 12142, "course": 2607, "iihf": 26904, "interference": 11099, "hale": 13084, "respect": 4847, "here": 2182, "engaging": 11973, "airbus": 20901, "[unused886]": 891, "edges": 7926, "doubling": 19383, "deportation": 23702, "grid": 8370, "africa": 3088, "[unused517]": 522, "moonlight": 11986, "logistics": 12708, "##zawa": 19708, "wta": 21925, "interviews": 7636, "proven": 10003, "##\u2208": 30124, "[unused346]": 351, "##art": 8445, "continues": 4247, "youths": 19634, "cancel": 17542, "##ious": 6313, "guy": 3124, "##inger": 9912, "##mics": 22924, "customers": 6304, "warmed": 17336, "officers": 3738, "pantheon": 24152, "double": 3313, "##ted": 3064, "kanye": 29270, "anchor": 8133, "##ith": 8939, "continents": 17846, "spectral": 17435, "##eron": 26534, "##ual": 8787, "regents": 22832, "congestion": 20176, "thoroughly": 12246, "protocol": 8778, "everything": 2673, "\u0644": 1294, "potential": 4022, "bishops": 8414, "##\u30ce": 30243, "desperation": 15561, "bail": 15358, "rooftop": 23308, "drum": 6943, "beautiful": 3376, "ct": 14931, "transforms": 21743, "monument": 6104, "darryl": 22821, "awarded": 3018, "1883": 7257, "upwards": 14873, "##west": 19650, "\u56d7": 1797, "circulation": 9141, "charlemagne": 27257, "scanning": 13722, "internacional": 27607, "notably": 5546, "islands": 3470, "arousal": 18905, "embankment": 22756, "perception": 10617, "catalonia": 16711, "theaters": 12370, "##yon": 14001, "session": 5219, "\u06d2": 1310, "##bow": 18912, "##01": 24096, "sighted": 19985, "dune": 21643, "servicing": 26804, "mcguire": 23872, "\u4e0d": 1744, "##ey": 3240, "1839": 10011, "##ook": 14659, "injustice": 21321, "designated": 4351, "1799": 13839, "##ell": 5349, "[unused165]": 170, "##nds": 18376, "housekeeper": 22583, "airing": 10499, "vt": 28879, "extends": 8908, "##inae": 16414, "ka": 10556, "libya": 12917, "externally": 27223, "personally": 7714, "phelps": 20475, "berkeley": 8256, "dusty": 12727, "##horse": 23024, "genocide": 14052, "##oton": 25862, "experiences": 6322, "theodor": 21448, "dwarfs": 28984, "##esthesia": 25344, "baseline": 26163, "exit": 6164, "patty": 17798, "caesar": 11604, "[unused481]": 486, "file": 5371, "payment": 7909, "##rca": 18992, "##eux": 20860, "raider": 27826, "detectives": 18145, "##far": 14971, "smiled": 3281, "nuevo": 22250, "slim": 11754, "pistons": 24399, "jen": 15419, "oxide": 15772, "tyson": 19356, "##imov": 25299, "punching": 19477, "[unused138]": 143, "malcolm": 8861, "amidst": 17171, "surge": 12058, "875": 27658, "commenced": 8420, "sheppard": 24976, "##elman": 23830, "pilgrimage": 14741, "1863": 6899, "##ridge": 9438, "\u6a4b": 1885, "fae": 17282, "laureate": 17656, "##hit": 16584, "##ono": 17175, "wherein": 16726, "overwhelmed": 13394, "soto": 22768, "excavation": 16456, "waterford": 17769, "##45": 19961, "apparently": 4593, "lets": 11082, "##erved": 25944, "execute": 15389, "should": 2323, "subsided": 26588, "hog": 27589, "##jord": 24876, "when": 2043, "ncaa": 5803, "archipelago": 13888, "squid": 26852, "easy": 3733, "[unused269]": 274, "eligible": 7792, "great": 2307, "crude": 13587, "mabel": 19486, "goo": 27571, "piazza": 22463, "tasmania": 12343, "sometime": 8811, "songwriters": 20602, "usa": 3915, "##\u0430\u043d": 28995, "rafael": 10999, "derbyshire": 15207, "texted": 24637, "murderous": 25303, "[unused45]": 46, "branches": 5628, "retiring": 9150, "pad": 11687, "##inus": 13429, "1890s": 13678, "##49": 26224, "invasive": 17503, "conscription": 26329, "uno": 27776, "pts": 19637, "harmless": 19741, "und": 6151, "knowledge": 3716, "rigorous": 20001, "##\u5149": 30296, "dimitri": 15953, "\u539f": 1787, "uttar": 14940, "##fi": 8873, "\u4e0a": 1742, "ballad": 11571, "hangul": 19051, "kristen": 22435, "##tze": 23102, "strapped": 18019, "physiological": 19389, "airplanes": 24042, "diva": 25992, "descended": 9287, "frontal": 19124, "townships": 13991, "russo": 17023, "vinegar": 29387, "190": 11827, "closed": 2701, "accumulated": 14830, "vintage": 13528, "underside": 17313, "assist": 6509, "ensemble": 7241, "##iol": 20282, "##gn": 16206, "##tek": 23125, "learned": 4342, "communicated": 24162, "\u76f8": 1919, "hurts": 13403, "##rdan": 26992, "##\u0f0d": 29961, "stroked": 11699, "bobby": 6173, "##hya": 17915, "peng": 26473, "dissolution": 12275, "##lai": 19771, "illnesses": 24757, "crashes": 19119, "specialist": 8325, "shows": 3065, "josiah": 24461, "\u0995": 1353, "##year": 29100, "flushing": 23519, "northwestern": 7855, "##smo": 25855, "90s": 17233, "flooded": 10361, "seo": 27457, "streaks": 21295, "listed": 3205, "##\u308c": 30214, "highly": 3811, "newcomers": 24159, "value": 3643, "incredible": 9788, "[unused327]": 332, "jon": 6285, "coke": 14492, "filter": 11307, "##neck": 18278, "smoothed": 17966, "items": 5167, "12": 2260, "accessed": 11570, "unusually": 12890, "compassionate": 29353, "koreans": 24651, "advertisement": 15147, "[unused267]": 272, "##user": 20330, "trade": 3119, "##connected": 24230, "\u9593": 1969, "tape": 6823, "sweets": 26844, "choose": 5454, "influences": 8092, "guatemala": 11779, "##chment": 22729, "##bbies": 27982, "enclosed": 10837, "\u1111": 1468, "##nay": 16741, "debuting": 24469, "absorb": 16888, "##under": 20824, "shy": 11004, "penetrated": 21653, "markets": 6089, "tensed": 15225, "alderman": 18977, "dei": 14866, "estadio": 14143, "[unused596]": 601, "visitor": 10367, "##ised": 5084, "slogan": 14558, "emperors": 19655, "verdi": 20580, "##uca": 18100, "any": 2151, "basketball": 3455, "\u2191": 1584, "kate": 5736, "haynes": 21805, "maurice": 7994, "pier": 10356, "cf": 12935, "converse": 23705, "marylebone": 28537, "adolf": 12500, "offer": 3749, "##lind": 27164, "[unused753]": 758, "kathmandu": 28045, "accelerate": 23306, "show": 2265, "191": 19871, "##\u5c71": 30357, "relegated": 7049, "##wei": 19845, "ismail": 19214, "schedules": 20283, "customs": 8205, "southernmost": 21787, "reprint": 25364, "sherry": 22268, "maryland": 5374, "##ggle": 24679, "taipei": 14004, "##uda": 14066, "##quest": 15500, "anglia": 24217, "##es": 2229, "scared": 6015, "mercer": 13081, "##rer": 14544, "kneeling": 16916, "duran": 22959, "##suke": 16867, "unix": 19998, "swapped": 29176, "duct": 23245, "ripping": 17039, "surely": 7543, "prague": 8634, "##lib": 29521, "##\"": 29613, "superstar": 18795, "fairbanks": 24502, "domination": 17882, "grateful": 8794, "graf": 22160, "montrose": 24990, "material": 3430, "exceptionally": 17077, "serb": 20180, "##ci": 6895, "##ster": 6238, "##antly": 15706, "##hor": 16368, "##tream": 25379, "##\u0905": 29847, "occupy": 11494, "aviv": 12724, "##dal": 9305, "##cite": 17847, "##ior": 25346, "helmets": 22674, "##st": 3367, "guerrillas": 26955, "zack": 13658, "consolidate": 24939, "twin": 5519, "busch": 15840, "##boarding": 21172, "hug": 8549, "shaky": 15311, "mongols": 22235, "bavaria": 11606, "##ol": 4747, "1791": 14362, "armory": 24139, "arrival": 5508, "memories": 5758, "conical": 24750, "operates": 5748, "coastal": 5780, "juan": 5348, "[unused437]": 442, "originally": 2761, "\u30d5": 1720, "sixty": 8442, "\u6d77": 1902, "##wee": 28394, "corpse": 11547, "\u0928": 1327, "nile": 15179, "bounce": 17523, "##yr": 12541, "snyder": 17840, "##illy": 20577, "\uff1f": 1994, "[unused513]": 518, "##wine": 21924, "##jia": 26541, "arrays": 27448, "##yi": 10139, "kitty": 14433, "prepared": 4810, "##chev": 16179, "\u1d64": 1509, "trainers": 21992, "morphological": 24012, "masjid": 27779, "militias": 29271, "northwest": 4514, "raided": 18784, "make": 2191, "irritating": 29348, "computing": 9798, "bodies": 4230, "##mo": 5302, "colin": 6972, "herr": 23506, "townsville": 27492, "eleventh": 11911, "mocking": 19545, "cavity": 17790, "modelling": 19518, "socks": 14829, "motioned": 13054, "adjacent": 5516, "infinitely": 25773, "bosnia": 9562, "slipped": 5707, "rejects": 19164, "treatise": 15326, "vaudeville": 19698, "forces": 2749, "composite": 12490, "rustling": 29188, "01": 5890, "##8th": 28264, "assets": 7045, "ninety": 13568, "govt": 22410, "##ographic": 13705, "commercial": 3293, "radiation": 8249, "bumped": 19030, "303": 19988, "offenses": 25173, "##\u0576": 29778, "mammalian": 26524, "britten": 29429, "jasmine": 14032, "pains": 20398, "painfully": 16267, "scotch": 18937, "sicilian": 22584, "notoriety": 23215, "1675": 27194, "revue": 17480, "[unused751]": 756, "##ajan": 28869, "nervous": 6091, "##sel": 11246, "thereby": 8558, "dunne": 26553, "zen": 16729, "exercised": 17747, "[unused221]": 226, "ensure": 5676, "nights": 6385, "supposed": 4011, "hinges": 25484, "##thed": 23816, "psychology": 6825, "survivor": 12084, "hose": 21290, "tal": 21368, "xvi": 16855, "introductory": 23889, "connectivity": 20831, "games": 2399, "posthumously": 12770, "cities": 3655, "unesco": 12239, "[unused820]": 825, "214": 19936, "##ures": 14900, "riot": 11421, "canteen": 26449, "municipalities": 7602, "brushing": 12766, "##cera": 19357, "\u0637": 1286, "halls": 9873, "clenched": 8555, "ssr": 20896, "guillermo": 21070, "caden": 23600, "295": 21679, "syriac": 24109, "##dgets": 28682, "##\u0bbe": 29931, "steal": 8954, "woodlands": 19268, "\u2ebc": 1633, "botanist": 17098, "commercials": 12698, "##gny": 19393, "##lang": 25023, "meaningful": 15902, "tap": 11112, "graduation": 7665, "narrator": 11185, "criticized": 6367, "dev": 16475, "feat": 8658, "seconds": 3823, "usage": 8192, "freestyle": 9817, "contributes": 16605, "bane": 25163, "intellectuals": 17412, "##/": 29626, "insurgency": 23939, "paddy": 16063, "sundance": 20140, "renumbered": 27855, "leaps": 29195, "indo": 11424, "brooks": 8379, "##uni": 19496, "noble": 7015, "hatfield": 26853, "poles": 10567, "castles": 15618, "cyril": 16049, "mackay": 17090, "striped": 17983, "lectured": 19206, "telecast": 28803, "pendleton": 24349, "include": 2421, "uncovered": 14486, "cb": 17324, "pee": 21392, "aluminium": 14794, "ian": 4775, "192": 17613, "jae": 22770, "##\u7ae0": 30458, "respiratory": 16464, "1949": 4085, "04": 5840, "ejected": 22607, "armament": 14410, "spores": 23763, "fashioned": 13405, "16th": 5767, "convicts": 24948, "ground": 2598, "revived": 10570, "\u6ca2": 1898, "##lea": 19738, "subordinate": 15144, "##ingham": 16445, "crook": 19302, "##tat": 29336, "actual": 5025, "dai": 18765, "stephens": 15037, "larvae": 9673, "bf": 28939, "ransom": 16540, "##force": 14821, "##oides": 25064, "judicial": 8268, "pens": 25636, "##\u5916": 30335, "incapable": 19907, "inadvertently": 21089, "\u30f3": 1737, "gaius": 19564, "preserved": 6560, "[unused961]": 966, "september": 2244, "##be": 4783, "##itz": 8838, "unexpected": 9223, "lively": 17133, "cents": 16653, "swami": 20087, "therapist": 19294, "voyages": 21993, "train": 3345, "southwestern": 8772, "guineas": 22385, "quartermaster": 24688, "##bour": 25127, "##lmer": 23398, "cow": 11190, "louder": 10989, "masks": 15806, "straw": 13137, "##active": 19620, "napier": 21320, "twitter": 10474, "supplement": 12448, "judge": 3648, "##sight": 25807, "filtered": 21839, "white": 2317, "solved": 13332, "weakened": 11855, "##rna": 12789, "##im": 5714, "##\u0e23": 29953, "angered": 18748, "gail": 18576, "provider": 10802, "accompanying": 10860, "afghanistan": 7041, "illustrate": 19141, "depot": 8470, "74": 6356, "cuba": 7394, "forbes": 10822, "##tures": 22662, "taluk": 23140, "stray": 15926, "detector": 19034, "rubin": 20524, "swaying": 21826, "asphalt": 16295, "abundance": 14531, "graphs": 19287, "whisper": 7204, "##kata": 29123, "##iser": 17288, "walkway": 19467, "shen": 21882, "tesla": 26060, "prohibited": 10890, "peel": 14113, "myself": 2870, "exempt": 11819, "##acio": 21361, "skepticism": 27936, "alright": 10303, "aggravated": 25817, "nancy": 7912, "heroine": 18869, "##cas": 15671, "pest": 20739, "af": 21358, "tabitha": 21581, "gradually": 6360, "cape": 4880, "omega": 14827, "ocean": 4153, "##tier": 17579, "##aid": 14326, "127": 13029, "\u0dc0": 1407, "mercenary": 22146, "##body": 23684, "##opped": 27288, "additions": 13134, "boy": 2879, "drastically": 21040, "ari": 10488, "\u5ba3": 1823, "novgorod": 24338, "unwilling": 15175, "corresponds": 14788, "alien": 7344, "nesting": 21016, "milan": 6954, "kincaid": 24510, "=": 1027, "deepest": 17578, "trumpeter": 28220, "wiltshire": 17045, "bombs": 9767, "aryan": 26030, "dinner": 4596, "##dee": 26095, "represent": 5050, "lightly": 8217, "pianos": 27864, "outpost": 21080, "cracked": 9630, "##stered": 24167, "chief": 2708, "##\u2218": 30126, "jays": 18930, "imaging": 12126, "associates": 9228, "\u308a": 1686, "##vor": 14550, "bricks": 14219, "##zquez": 22938, "images": 4871, "sank": 7569, "agnes": 11166, "bulgaria": 8063, "pursued": 9505, "seaside": 20276, "##tor": 4263, "152": 15017, "detect": 11487, "nu": 16371, "seventy": 10920, "withdrawn": 9633, "shapes": 10466, "allies": 6956, "alike": 11455, "##puram": 17809, "flyer": 23821, "sw": 25430, "alternatives": 15955, "cindy": 15837, "travelled": 7837, "stella": 11894, "legion": 8009, "breeze": 9478, "indians": 6505, "apache": 15895, "##\u5802": 30331, "##rona": 26788, "\u0924": 1323, "##yman": 17906, "[unused493]": 498, "##ntes": 17340, "##\u4e3b": 30273, "23": 2603, "##nov": 16693, "brest": 22451, "dresser": 16641, "protein": 5250, "[unused357]": 362, "##birds": 12887, "##rao": 25667, "witch": 6965, "100th": 16919, "referees": 25118, "##bots": 27014, "inspiration": 7780, "[unused840]": 845, "##\u1d56": 30040, "##cratic": 17510, "##ill": 8591, "manipulation": 16924, "rossi": 18451, "recurring": 10694, "##lica": 19341, "disney": 6373, "curse": 8364, "hillary": 18520, "crazy": 4689, "##ausen": 25701, "debated": 15268, "uzbekistan": 17065, "satirical": 17251, "\u0628": 1271, "variable": 8023, "flashed": 8373, "demanding": 9694, "chile": 7029, "flared": 14937, "nielsen": 13188, "commodities": 21955, "lift": 6336, "cbs": 6568, "grain": 8982, "jokes": 13198, "##och": 11663, "contemporaries": 16682, "##rr": 12171, "luciano": 24512, "asia": 4021, "subsidies": 21762, "serbia": 7238, "interactions": 10266, "receptor": 10769, "robyn": 28047, "spare": 8622, "fundamentally": 24670, "liar": 16374, "dolores": 21544, "[unused485]": 490, "brazilian": 6142, "wholesale": 17264, "##phus": 25255, "327": 28469, "pratt": 13208, "enthusiastically": 24935, "lucien": 11732, "elton": 19127, "##oris": 21239, "dense": 9742, "unmarked": 25779, "forsyth": 29434, "thing": 2518, "fair": 4189, "510": 23475, "##b": 2497, "ry": 29431, "augusto": 29085, "##lev": 20414, "##ieri": 21939, "wrenched": 26971, "succession": 8338, "writers": 4898, "keys": 6309, "vertically": 20018, "richie": 14411, "currie": 20667, "ollie": 25208, "##gie": 11239, "\u0437": 1187, "shape": 4338, "[unused474]": 479, "##tative": 27453, "nicole": 9851, "worn": 6247, "exaggerated": 16903, "requesting": 17942, "insult": 15301, "dignitaries": 27960, "mound": 12048, "trying": 2667, "rue": 13413, "basement": 8102, "2004": 2432, "hood": 7415, "##olate": 19425, "[unused552]": 557, "##wari": 20031, "seen": 2464, "publication": 4772, "worlds": 8484, "strongly": 6118, "backstage": 20212, "##hear": 26560, "cambrian": 29228, "revealed": 3936, "##\u1d52": 30039, "parisian": 24262, "verona": 20197, "outfielder": 21033, "##iji": 27821, "\u2030": 1530, "announcer": 14073, "[unused47]": 48, "whore": 17219, "vancouver": 6930, "[unused450]": 455, "direct": 3622, "ceylon": 16447, "##tub": 28251, "hamlet": 8429, "yorker": 19095, "affected": 5360, "dax": 27116, "wisconsin": 5273, "disliked": 18966, "delle": 24121, "legislators": 22680, "usl": 22448, "protector": 16167, "##ovic": 9142, "##nal": 12032, "defaulted": 17265, "crypt": 19888, "##isson": 24077, "laying": 10201, "airlines": 7608, "sami": 17015, "fitzpatrick": 26249, "cubic": 11919, "##d": 2094, "##rade": 13662, "visiting": 5873, "##fus": 25608, "##tp": 25856, "seniors": 15995, "lengthy": 12401, "orbit": 8753, "suites": 19796, "wastewater": 28269, "corresponded": 27601, "localities": 19664, "funk": 11962, "prospective": 17464, "anybody": 10334, "##\u00b1": 29657, "definition": 6210, "##dles": 27822, "end": 2203, "reminder": 14764, "\u2500": 1615, "phosphorus": 25473, "racism": 14398, "[unused33]": 34, "##aged": 18655, "##\u305f": 30187, "grammatical": 24402, "##ral": 7941, "julia": 6423, "sino": 19432, "penetration": 20015, "barriers": 13500, "##flies": 24019, "foreign": 3097, "mv": 19842, "colliery": 19462, "##mined": 25089, "decatur": 27783, "##bana": 19445, "landon": 20642, "##uo": 19098, "hook": 8103, "liga": 8018, "para": 11498, "globalization": 24370, "kiran": 22403, "##held": 24850, "clerk": 7805, "baseman": 18038, "tournament": 2977, "aim": 6614, "##eva": 13331, "garrison": 8427, "brewster": 23009, "attendants": 26727, "helsinki": 12331, "netflix": 20907, "litigation": 15382, "wherever": 11210, "weekend": 5353, "neighbours": 14754, "simpson": 9304, "fairies": 20182, "cardiovascular": 22935, "stresses": 23253, "317": 26628, "sniff": 27907, "ordering": 13063, "virtually": 8990, "nazi": 6394, "genie": 22519, "prone": 13047, "[unused509]": 514, "\u540d": 1795, "hellenistic": 27464, "\u10dc": 1449, "\u03c0": 1170, "vibration": 17880, "thomson": 11161, "speaking": 4092, "1878": 7261, "\u27e9": 1630, "##brook": 9697, "kernel": 16293, "colby": 18650, "##den": 4181, "versions": 4617, "sanitary": 25480, "batavia": 28917, "dwarves": 29281, "heroes": 7348, "\u026a": 1119, "##\u2092": 30091, "billion": 4551, "mohammad": 12050, "academic": 3834, "masterpiece": 17743, "apprenticeship": 20448, "simpler": 16325, "intimacy": 20893, "drainage": 11987, "lavish": 22689, "circumstance": 25652, "sima": 26769, "capsule": 18269, "##\u221a": 30127, "perched": 17335, "negotiations": 7776, "##thing": 20744, "##vere": 28943, "response": 3433, "##ellant": 24178, "sparkle": 26831, "395": 24673, "rotterdam": 15632, "claire": 6249, "##wani": 29092, "itself": 2993, "ruled": 5451, "devils": 13664, "##ffi": 26989, "143": 16065, "[unused166]": 171, "\u30ea": 1732, "##arat": 25879, "##sser": 18116, "brett": 12049, "aforementioned": 17289, "estimated": 4358, "lookout": 19052, "##sius": 24721, "off": 2125, "thousands": 5190, "fleeing": 14070, "iii": 3523, "richards": 9712, "1743": 25615, "##swell": 19228, "\u0bb0": 1391, "##onic": 12356, "icons": 18407, "\u702c": 1905, "##hema": 28433, "radius": 12177, "honolulu": 16598, "margot": 29210, "##\u02d0": 23432, "buzzing": 20386, "duplicate": 24473, "cries": 12842, "spartak": 28560, "pollock": 25218, "ions": 15956, "motor": 5013, "grandparents": 14472, "1988": 2997, "discrete": 16246, "legislator": 22964, "patrice": 29527, "pockets": 10306, "##\u1da0": 30047, "stephen": 4459, "lots": 7167, "tessa": 13167, "##a1": 27717, "coach": 2873, "encyclopedia": 12204, "\u1d40": 1495, "marcel": 13389, "##\u208d": 30087, "jorge": 10853, "##sca": 15782, "[unused917]": 922, "addresses": 11596, "##uze": 20395, "mates": 14711, "badger": 24186, "spade": 23288, "computer": 3274, "hurry": 9241, "briefcase": 21793, "conservatory": 11879, "\u00bc": 1091, "barangay": 20937, "nbc": 6788, "title": 2516, "rage": 7385, "headquartered": 9403, "##tone": 5524, "translated": 5421, "ones": 3924, "simeon": 24371, "cream": 6949, "eighth": 5964, "##ear": 14644, "[unused882]": 887, "##\u06be": 29844, "pagan": 14318, "##zziness": 29212, "bases": 7888, "##ana": 5162, "frequencies": 13139, "goaltender": 21437, "macdonald": 10406, "materials": 4475, "\u03c4": 1174, "##form": 14192, "chronology": 17873, "masses": 11678, "cantata": 23629, "journalist": 4988, "[unused769]": 774, "connacht": 27062, "resurrection": 15218, "younger": 3920, "sharply": 9249, "helens": 24074, "##shot": 19040, "\u570b": 1800, "##vu": 19722, "towels": 24213, "rec": 28667, "greedy": 20505, "##\u2090": 30089, "foo": 29379, "barron": 23594, "chow": 20209, "ll": 2222, "synagogue": 13067, "structure": 3252, "##cher": 7474, "turnpike": 17116, "caitlin": 27555, "extent": 6698, "isis": 18301, "lobe": 21833, "unfinished": 14342, "delivery": 6959, "generations": 8213, "cheat": 21910, "nilsson": 29376, "wednesday": 9317, "##\u5dde": 30362, "scramble": 25740, "marquette": 24223, "rabbi": 7907, "thick": 4317, "##lla": 4571, "345": 23785, "looting": 29367, "##\u30e7": 30256, "moons": 23377, "[unused859]": 864, "martinez": 10337, "invasions": 23536, "##hosis": 25229, "brien": 9848, "##ators": 18926, "deserts": 28858, "thrill": 16959, "cheese": 8808, "vuelta": 21441, "wanting": 5782, "realised": 11323, "abbot": 11428, "##ope": 17635, "xi": 8418, "[unused495]": 500, "sirius": 23466, "mist": 11094, "##aint": 22325, "horticultural": 26235, "certainty": 15855, "projective": 27473, "##(": 29619, "report": 3189, "##um": 2819, "intermittent": 23852, "[unused594]": 599, "survives": 13655, "##etched": 29574, "buys": 23311, "lombard": 23441, "bought": 4149, "instructional": 23219, "gregory": 7296, "coarse": 20392, "[unused232]": 237, "[unused968]": 973, "dismissed": 7219, "naturalist": 19176, "scarce": 18782, "marketed": 11625, "rubble": 17538, "proprietor": 21584, "[unused556]": 561, "gaze": 3657, "profits": 11372, "parallels": 18588, "##ilo": 22360, "funded": 6787, "boats": 6242, "demonic": 23170, "gasp": 12008, "harlan": 24276, "rose": 3123, "1540": 27536, "join": 3693, "grafton": 28680, "coincide": 19680, "sabres": 26969, "torpedoes": 18544, "greenwich": 13861, "##lls": 12718, "starved": 26042, "hudson": 6842, "kc": 21117, "christchurch": 15880, "comfortably": 18579, "hostile": 10420, "dynasties": 23014, "mcc": 23680, "larsen": 20094, "both": 2119, "##rricular": 21231, "brightest": 26849, "starting": 3225, "period": 2558, "dip": 16510, "suspects": 13172, "bribes": 29117, "domingo": 15586, "rochester": 10541, "screen": 3898, "happened": 3047, "accused": 5496, "dame": 8214, "backpack": 13383, "toilets": 21674, "rocky": 6857, "subscription": 15002, "chariot": 23507, "frown": 11330, "impairment": 25172, "roanoke": 25899, "finishes": 12321, "prentice": 23429, "update": 10651, "##ocytes": 28788, "absurd": 18691, "must": 2442, "calcutta": 13419, "maximal": 29160, "##ome": 8462, "tending": 25069, "toys": 10899, "northwards": 27592, "prices": 7597, "estimates": 10035, "##eborg": 27614, "wessex": 27886, "boards": 7923, "slant": 27474, "bulk": 9625, "tara": 10225, "fumble": 19576, "[unused900]": 905, "flynn": 13259, "mm": 3461, "muscles": 6650, "##sia": 8464, "dividing": 16023, "297": 27502, "##lists": 27103, "deeply": 6171, "##pan": 9739, "\u306e": 1671, "243": 22884, "inherently": 26096, "adams": 5922, "toy": 9121, "feeling": 3110, "vincent": 6320, "admired": 12749, "hostage": 13446, "converge": 28314, "##sul": 23722, "recognized": 3858, "\u0f53": 1429, "papacy": 25097, "damaged": 5591, "section": 2930, "##grants": 27444, "[unused502]": 507, "##\u0111": 29671, "panties": 12095, "alberto": 12007, "maroon": 22222, "28th": 15538, "supreme": 4259, "awkwardly": 18822, "tide": 10401, "whenever": 7188, "lavender": 20920, "future": 2925, "##child": 19339, "##vel": 15985, "stunned": 9860, "##\u6211": 30381, "stout": 18890, "cathy": 18305, "preview": 19236, "pinched": 18521, "fergus": 21023, "suspension": 8636, "##leigh": 13615, "##tting": 13027, "1933": 4537, "##las": 8523, "\u66f2": 1870, "interstate": 7553, "cappella": 23013, "1845": 9512, "770": 29065, "##rien": 23144, "munich": 7469, "iona": 22347, "##\u5fc3": 30375, "silently": 8601, "##won": 19291, "fremantle": 20358, "outline": 12685, "acids": 12737, "approve": 14300, "[unused887]": 892, "searches": 17193, "currents": 14731, "underway": 14128, "paddle": 20890, "[PAD]": 0, "##\u025b": 29275, "arcadia": 25178, "##\u2011": 30049, "##lena": 20844, "\u056c": 1226, "cookie": 17387, "finger": 4344, "1776": 13963, "aiming": 13659, "considerable": 6196, "##\u043e\u0432": 19259, "arrogance": 24416, "##lling": 13112, "##\u662d": 30394, "combined": 4117, "\u0baa": 1388, "relationship": 3276, "ranging": 7478, "referendum": 9782, "networks": 6125, "embrace": 9979, "pe": 21877, "hee": 18235, "natalie": 10829, "##using": 18161, "##aia": 27131, "fernando": 9158, "ultraviolet": 26299, "oscar": 7436, "bonuses": 29563, "##any": 19092, "doo": 20160, "axle": 17290, "technicians": 20202, "thorne": 14296, "spotted": 7282, "##gne": 10177, "nichols": 15746, "##ffer": 12494, "professorship": 22661, "92": 6227, "complexes": 15420, "limits": 6537, "whatever": 3649, "opposed": 4941, "##ington": 7853, "soothing": 16684, "copies": 4809, "bahia": 22474, "bearer": 20905, "cleavage": 28691, "##\u03b4": 29722, "etymology": 26803, "early": 2220, "dying": 5996, "word": 2773, ":": 1024, "delegates": 10284, "##rath": 27362, "capitol": 9424, "hopkins": 10239, "annoyed": 11654, "##ila": 11733, "buffy": 18467, "paige": 17031, "civilian": 6831, "[unused463]": 468, "\u9762": 1976, "114": 12457, "experimenting": 23781, "alfredo": 19423, "wolfgang": 13865, "speech": 4613, "gardener": 19785, "##oses": 27465, "near": 2379, "jack": 2990, "mercantile": 25420, "lindsey": 17518, "owned": 3079, "synthesized": 23572, "listening": 5962, "discussed": 6936, "disgusting": 19424, "##wn": 7962, "closest": 7541, "##\u79c0": 30454, "abdomen": 13878, "##case": 18382, "ash": 6683, "\u05d6": 1247, "super": 3565, "arranging": 19018, "roberto": 10704, "\u2666": 1626, "##sell": 23836, "##ely": 26006, "##59": 28154, "benches": 19571, "regain": 12452, "families": 2945, "additional": 3176, "muster": 20327, "peru": 7304, "resisting": 22363, "afghan": 12632, "ignores": 26663, "da": 4830, "reasoning": 13384, "skulls": 21542, "##\u2085": 30081, "[unused274]": 279, "warped": 25618, "subdivisions": 22095, "\u53e3": 1788, "khan": 4967, "\u304d": 1652, "caressing": 25296, "##\u03b7\u03c2": 29155, "householder": 7536, "##bon": 11735, "earliest": 5700, "drawings": 9254, "##chia": 20881, "elmer": 21464, "hancock": 13849, "1985": 3106, "dir": 16101, "##dly": 18718, "paradigm": 20680, "torque": 15894, "writes": 7009, "contexts": 18046, "##jo": 5558, "mi": 2771, "baroque": 10456, "open": 2330, "breuning": 18177, "maria": 3814, "brightened": 28996, "transport": 3665, "\u03c3": 1173, "seed": 6534, "##vna": 29207, "convinced": 6427, "complied": 26946, "remove": 6366, "jurassic": 19996, "110": 7287, "membership": 5779, "##rion": 14772, "\u222a": 1605, "[unused762]": 767, "##ological": 10091, "flinched": 19201, "earthly": 29520, "##ok": 6559, "1847": 9176, "##listic": 27348, "associations": 8924, "##lake": 14530, "##ailing": 29544, "17th": 5550, "sanctions": 17147, "tay": 28117, "symptoms": 8030, "brow": 8306, "82": 6445, "##most": 11800, "shielding": 25553, "family": 2155, "sport": 4368, "##lined": 18194, "basalt": 26343, "influential": 6383, "sparrow": 19479, "##mania": 27010, "occurs": 5158, "##cup": 15569, "tongue": 4416, "fray": 25975, "##oper": 25918, "cater": 23488, "iucn": 20333, "socrates": 26772, "highlights": 11637, "blackmail": 25044, "oyster": 21480, "complications": 12763, "relying": 18345, "morale": 19292, "yan": 13619, "\u5dff": 1837, "\u3008": 1637, "magical": 8687, "handkerchief": 23975, "##\uff1f": 30520, "genetics": 14471, "laborers": 23428, "minnesota": 5135, "##cao": 20808, "##iger": 17071, "fielding": 15452, "##nto": 13663, "\u2011": 1514, "francois": 8173, "offense": 10048, "mx": 25630, "[unused351]": 356, "##ading": 23782, "excellent": 6581, "53": 5187, "##sef": 20106, "grinding": 16153, "[unused848]": 853, "[unused546]": 551, "luis": 6446, "1901": 5775, "70s": 17549, "boil": 26077, "disrupt": 23217, "desperate": 7143, "nominees": 17853, "rifles": 9494, "semantics": 28081, "randolph": 13031, "troops": 3629, "days": 2420, "arising": 17707, "lawyers": 9559, "yugoslav": 12292, "##anum": 27975, "protests": 8090, "[unused559]": 564, "bosses": 23029, "graduate": 4619, "##nce": 5897, "void": 11675, "rip": 10973, "indirect": 14958, "##yl": 8516, "commercially": 11088, "reliance": 17975, "gets": 4152, "##sion": 10992, "[unused211]": 216, "avoid": 4468, "shifts": 12363, "career": 2476, "suggest": 6592, "crimson": 11466, "paranormal": 20725, "cody": 13326, "vocals": 2955, "bangkok": 12627, "##ttered": 14795, "denied": 6380, "\u0574": 1229, "conventions": 12472, "whitman": 21311, "construct": 9570, "dissemination": 28170, "##bbs": 17226, "communes": 16569, "##bread": 27035, "1667": 27643, "samantha": 11415, "pow": 23776, "prosperous": 18241, "moves": 5829, "avoided": 9511, "ag": 12943, "broadcasting": 5062, "##at": 4017, "talbot": 14838, "bang": 9748, "pipe": 8667, "refugee": 13141, "southland": 29121, "##hee": 21030, "##partisan": 26053, "132": 14078, "swollen": 13408, "middleweight": 18741, "albrecht": 25542, "fishes": 21995, "involving": 5994, "sabbath": 19546, "buy": 4965, "##ection": 18491, "##ibar": 26656, "breadth": 25291, "tactic": 19717, "health": 2740, "[unused635]": 640, "hydro": 18479, "coded": 22402, "enclave": 25867, "councillors": 13189, "##oic": 19419, "gallo": 25624, "[unused368]": 373, "reginald": 14435, "scientology": 23845, "vivo": 24269, "##nnis": 27803, "##ited": 17572, "dollars": 6363, "midst": 12930, "##uh": 27225, "doll": 10658, "regal": 21279, "intercollegiate": 21587, "travelers": 15183, "\u20ac": 1574, "tombstone": 26671, "[unused290]": 295, "venture": 6957, "homeland": 10759, "1852": 8784, "##\u207a": 12744, "effects": 3896, "polling": 17888, "realism": 15650, "bark": 11286, "tun": 27112, "divine": 7746, "##baum": 14898, "appears": 3544, "telescopes": 28026, "mentioning": 18625, "##rius": 13245, "cooling": 11520, "lewis": 4572, "##unciation": 24101, "bargain": 17113, "mats": 22281, "##rito": 28414, "madeleine": 19324, "##hai": 10932, "trousers": 15292, "245": 21005, "411": 27517, "\u767a": 1914, "##yn": 6038, "arrogant": 15818, "thrust": 7400, "signing": 6608, "converting": 16401, "generic": 12391, "while": 2096, "uniformed": 25189, "deaf": 12419, "ana": 9617, "director": 2472, "mojo": 28017, "phrases": 15672, "attackers": 17857, "nec": 26785, "invincible": 25018, "boxers": 18508, "perpendicular": 19581, "deficiency": 18888, "kemp": 20441, "albans": 26311, "draper": 23641, "reputation": 5891, "rehabilitation": 11252, "go": 2175, "lars": 16357, "reigning": 16323, "##athy": 17308, "[unused451]": 456, "##tley": 18492, "bruise": 24851, "stacy": 18566, "ventura": 21151, "gunther": 19384, "phyllis": 20328, "sv": 17917, "##nivorous": 29193, "stiffened": 16090, "attractions": 13051, "mushroom": 18565, "dallas": 5759, "\u091a": 1318, "flight": 3462, "captives": 21496, "beale": 28371, "\u00fe": 1101, "\u6c37": 1895, "edna": 21051, "detecting": 25952, "1770": 17711, "malawi": 18137, "now": 2085, "intensive": 11806, "crawling": 15927, "ambassador": 6059, "compensate": 19079, "behavioral": 14260, "##\u00e6": 29667, "needing": 11303, "##tas": 10230, "bled": 23919, "stockport": 26284, "wnba": 25554, "vessel": 6258, "occupants": 18837, "gravely": 28070, "##media": 16969, "spectacular": 12656, "##carriage": 21539, "anxious": 11480, "planning": 4041, "believed": 3373, "dreaming": 12802, "sect": 17831, "elevation": 6678, "rocked": 14215, "baskets": 25946, "payroll": 26854, "tornado": 11352, "\u0926": 1325, "linger": 26577, "chancel": 16482, "custer": 28888, "casting": 9179, "petals": 15829, "enzymes": 16285, "anthony": 4938, "\u0292": 1138, "challenger": 12932, "trinidad": 11856, "eye": 3239, "peanut": 21443, "lynx": 22636, "distinct": 5664, "drama": 3689, "##mont": 9629, "troopers": 26246, "##tead": 14565, "[unused223]": 228, "##nger": 11392, "stares": 14020, "##ogy": 15707, "musical": 3315, "finalist": 9914, "##rian": 6862, "##yson": 25385, "exhibition": 4538, "tributaries": 15777, "furnace": 17533, "##bane": 27543, "flourished": 17893, "principals": 27928, "##zuki": 24015, "implicit": 24655, "almeida": 29555, "hiding": 6318, "burials": 23109, "strife": 27865, "breaking": 4911, "associate": 5482, "hospitalized": 24735, "##eptive": 22048, "investigator": 14064, "benefited": 19727, "kristina": 28802, "licence": 11172, "##wi": 9148, "##sten": 16173, "assured": 8916, "armour": 12371, "zambia": 15633, "[unused379]": 384, "cbe": 15852, "gorman": 25693, "devoted": 7422, "groans": 27778, "toxic": 11704, "##ipes": 28108, "playable": 16854, "##ama": 8067, "competitive": 6975, "carlisle": 13575, "\u98a8": 1977, "inclusion": 10502, "oswald": 17411, "vermont": 8839, "manitoba": 10512, "13th": 6122, "achilles": 23167, "camilla": 26902, "thicker": 19638, "wander": 17677, "ark": 15745, "afraid": 4452, "wives": 10403, "mps": 12616, "keynes": 22152, "mentally": 10597, "sympathy": 11883, "jacobs": 12988, "\u524d": 1776, "narrowing": 21978, "wb": 25610, "hating": 22650, "pressured": 25227, "namesake": 17283, "\u0e27": 1419, "bellowed": 27386, "julian": 6426, "callum": 15229, "damp": 10620, "nominate": 23388, "\u2193": 1586, "barak": 27739, "olympus": 26742, "cannes": 14775, "submit": 12040, "papua": 13049, "1805": 13126, "nail": 13774, "proliferation": 20250, "grimes": 24865, "everybody": 7955, "written": 2517, "khorasan": 23225, "heated": 9685, "##earing": 27242, "companion": 7452, "swat": 25414, "devices": 5733, "restaurants": 7884, "auditorium": 11448, "could": 2071, "roses": 10529, "debuts": 26740, "##sons": 23345, "rousseau": 26868, "concern": 5142, "chargers": 18649, "##cheng": 21043, "wendell": 24526, "reefs": 21484, "##fulness": 20938, "pussy": 22418, "castillo": 19371, "reactive": 22643, "lauderdale": 23520, "hurrying": 27951, "naturalized": 27558, "gemini": 21424, "2000": 2456, "cave": 5430, "##static": 16677, "conglomerate": 22453, "bjp": 24954, "dukes": 16606, "##mage": 26860, "skirts": 18184, "sculptures": 10801, "jerseys": 28772, "jeremy": 7441, "cote": 17155, "##liest": 21292, "shift": 5670, "##tracted": 24301, "somewhat": 5399, "\u00b9": 1088, "inappropriate": 15884, "paradise": 9097, "canonical": 18562, "fury": 8111, "warehouses": 23319, "acquaintances": 29409, "sheng": 25981, "spoke": 3764, "continental": 6803, "##oj": 29147, "loads": 15665, "[unused715]": 720, "toulouse": 17209, "##mussen": 29134, "adjusted": 10426, "runways": 24578, "##\u5408": 30318, "again": 2153, "abundant": 12990, "[unused591]": 596, "1622": 28133, "privateer": 26790, "##\u2044": 30070, "former": 2280, "##\u2605": 30147, "reserved": 9235, "hunters": 9624, "##75": 23352, "1867": 7517, "petty": 11612, "updates": 14409, "interrupting": 22602, "earnings": 16565, "unofficial": 11982, "73": 6421, "dem": 17183, "404": 24837, "on": 2006, "keyboards": 6269, "##yte": 17250, "pensions": 22024, "strewn": 25259, "##ach": 6776, "ava": 10927, "colombo": 16224, "##rys": 24769, "[unused789]": 794, "mandir": 22700, "fredrik": 25454, "pod": 17491, "entity": 9178, "unified": 10562, "##nosis": 27109, "taekwondo": 28529, "magician": 16669, "##caster": 25490, "watching": 3666, "fitch": 26062, "martyrs": 18945, "cockpit": 13828, "dwight": 14304, "shared": 4207, "sway": 17812, "insect": 14211, "carousel": 27628, "au": 8740, "baths": 19692, "honey": 6861, "educated": 5161, "##fall": 13976, "habsburg": 17486, "portraying": 17274, "sourced": 23184, "swear": 8415, "elliptic": 29413, "johor": 25268, "smirked": 18775, "havana": 15278, "worst": 5409, "\u044f": 1210, "##gg": 13871, "dealing": 7149, "spawned": 18379, "##line": 4179, "betrayed": 12056, "qing": 13282, "locks": 11223, "hobby": 17792, "barbed": 25007, "exercise": 6912, "led": 2419, "shaved": 20665, "niall": 21889, "`": 1036, "\u05e1": 1258, "painter": 5276, "functional": 8360, "ranged": 15844, "museo": 19713, "##mbs": 29232, "belgium": 5706, "mali": 16007, "##ui": 10179, "88": 6070, "dorothy": 9984, "resin": 24604, "olympian": 25977, "[unused308]": 313, "yuan": 11237, "blinded": 20641, "hawthorn": 21671, "speak": 3713, "rapidly": 5901, "[unused581]": 586, "logan": 6307, "handful": 9210, "standard": 3115, "##igan": 10762, "xbox": 12202, "fairfield": 18986, "flora": 10088, "\u25aa": 1618, "fade": 12985, "sponge": 25742, "##wide": 22517, "compartments": 27998, "shiva": 12535, "honors": 7836, "fm": 4718, "##tees": 28313, "rides": 12271, "##dial": 27184, "diagnosis": 11616, "yard": 4220, "babies": 10834, "horace": 12757, "demonstrated": 7645, "rockets": 12496, "1824": 11617, "##\u3088": 30210, "##\u57ce": 30330, "tandem": 18231, "talon": 19048, "bored": 11471, "adorned": 19189, "serra": 22737, "impending": 17945, "aircraft": 2948, "compromise": 12014, "\u25a0": 1617, "sequel": 8297, "tucson": 17478, "##\u2018": 30055, "scandals": 29609, "frankenstein": 22478, "[unused833]": 838, "\u5bb6": 1825, "namely": 8419, "[unused686]": 691, "##qa": 19062, "##sei": 20240, "##resh": 21898, "violate": 23640, "ignition": 17446, "islanders": 16422, "cumbria": 25559, "irresistible": 27149, "loyalist": 23414, "##,": 29623, "##\u3066": 30191, "mace": 19382, "strips": 12970, "relieve": 15804, "stair": 23788, "400": 4278, "365": 19342, "uta": 28981, "precursor": 14988, "ik": 20912, "chopin": 25479, "pali": 28619, "##\u0916": 29852, "locomotive": 8098, "##\u6751": 30404, "prohibition": 13574, "watershed": 12547, "##icide": 21752, "juveniles": 25406, "serial": 7642, "loops": 15932, "tank": 4951, "\u2074": 1538, "alyssa": 26442, "[unused680]": 685, "electronic": 4816, "meteorological": 20557, "##\u06d2": 29846, "\u2202": 1592, "##53": 22275, "##sop": 28793, "##su": 6342, "\u0923": 1322, "##ouse": 15441, "nighttime": 26031, "schumann": 29448, "usb": 18833, "marlborough": 22830, "messengers": 28938, "##ikh": 28209, "persistent": 14516, "clashed": 22600, "enamel": 29484, "##\u6a4b": 30411, "cute": 10140, "archival": 22796, "##\u10d2": 29976, "metre": 7924, "greeting": 14806, "##ours": 22957, "##ances": 26755, "hill": 2940, "cis": 20199, "alignment": 12139, "##tangle": 23395, "[unused373]": 378, "1642": 24061, "quarries": 27069, "[unused473]": 478, "yelling": 13175, "##ively": 14547, "[unused669]": 674, "deutschland": 28668, "spirits": 8633, "##holm": 18884, "##gor": 20255, "narration": 21283, "helped": 3271, "outs": 21100, "##\u5730": 30328, "exploit": 18077, "pepsi": 27237, "belinda": 24574, "##\u00a5": 29648, "pavement": 14271, "\u6c5f": 1897, "devlin": 24389, "facilities": 4128, "saxon": 10038, "caroline": 7981, "jayne": 24408, "##uez": 29488, "patrol": 6477, "distraught": 25348, "##estinal": 19126, "pigment": 28815, "hms": 7220, "coupled": 11211, "ia": 24264, "shipped": 12057, "##fect": 25969, "cheung": 22632, "##urai": 24804, "wavelengths": 29263, "alcoholism": 25519, "watkins": 17055, "supplies": 6067, "glowing": 10156, "hen": 21863, "mesopotamia": 25889, "casualty": 19844, "adam": 4205, "competent": 17824, "harassment": 16011, "lou": 10223, "starbucks": 29500, "simulate": 26633, "effect": 3466, "ethanol": 22886, "anatolia": 23747, "genevieve": 20245, "coleman": 11608, "adultery": 29169, "proxy": 24540, "theologian": 17200, "\u5834": 1806, "faith": 4752, "##zhou": 9791, "grave": 6542, "##zard": 26154, "##nate": 12556, "distrust": 29245, "complementary": 21053, "snout": 17291, "utrecht": 18361, "##\u0562": 29767, "##nn": 10695, "mechanism": 7337, "long": 2146, "sponsored": 6485, "##isch": 19946, "lived": 2973, "sure": 2469, "bethlehem": 19360, "glorious": 14013, "avengers": 14936, "[unused29]": 30, "unlocked": 14058, "densely": 19441, "artemis": 19063, "met": 2777, "##lm": 13728, "nell": 20970, "##\u2076": 30075, "bonding": 19882, "stil": 25931, "##\u00a9": 29652, "sears": 18493, "suddenly": 3402, "paisley": 23321, "##\u2265": 30136, "poetry": 4623, "every": 2296, "crumbling": 24827, "##ths": 26830, "themed": 11773, "##\u307e": 30203, "replaced": 2999, "radios": 22229, "showtime": 23811, "##laus": 28128, "magnolia": 24659, "1754": 22593, "##vey": 12417, "[unused880]": 885, "pike": 12694, "directors": 5501, "confronts": 17628, "betray": 20895, "influencing": 25870, "barbarians": 28056, "[unused21]": 22, "penny": 10647, "narrower": 22546, "country": 2406, "chemotherapy": 27144, "238": 22030, "postwar": 20013, "straight": 3442, "hoc": 21929, "opt": 23569, "ranks": 6938, "favourite": 8837, "colours": 8604, "abrupt": 18772, "donation": 13445, "rooted": 15685, "saxe": 24937, "alabama": 6041, "##cased": 28969, "##ora": 6525, "longitude": 20413, "obligatory": 26471, "newscast": 20306, "heard": 2657, "wait": 3524, "vanished": 9955, "##jon": 14339, "harmonica": 16527, "52nd": 26898, "dive": 11529, "judgment": 8689, "unemployment": 12163, "sensor": 13617, "greeks": 13176, "histories": 15215, "##moto": 15319, "tobin": 28096, "##\u8a9e": 30476, "ke": 17710, "totaling": 21798, "casey": 9036, "rated": 6758, "willard": 19138, "iata": 9833, "##chers": 21844, "enslaved": 22216, "kade": 26159, "distorted": 19112, "oklahoma": 5858, "advertising": 6475, "##uses": 25581, "zenith": 28672, "##8": 2620, "kindergarten": 11793, "mcbride": 18958, "##urance": 25863, "kidney": 14234, "##nova": 13455, "hungry": 7501, "beckett": 20599, "228": 22238, "##bed": 8270, "chichester": 23406, "witty": 25591, "##\u1d58": 30042, "##yck": 28377, "adobe": 18106, "1823": 12522, "receives": 8267, "pray": 11839, "winchester": 12841, "##ffle": 18142, "prefect": 19402, "griffiths": 21960, "prodigy": 28334, "none": 3904, "##wash": 28556, "restrain": 28467, "liner": 11197, "\u4e00": 1740, "1887": 6837, "exploits": 20397, "1793": 12387, "[unused275]": 280, "louis": 3434, "spa": 12403, "linguistics": 15397, "contained": 4838, "\u05df": 1256, "[unused202]": 207, "[unused362]": 367, "steals": 15539, "##well": 4381, "germans": 7074, "##eyer": 20211, "catastrophic": 23546, "##mide": 24284, "psychic": 12663, "jaenelle": 20757, "slicing": 26514, "gael": 28151, "##escence": 28964, "factions": 13815, "##ij": 28418, "townland": 23635, "aarhus": 29173, "submissions": 27842, "sr": 5034, "##mme": 20058, "scene": 3496, "##neo": 23585, "camped": 27077, "##very": 27900, "understanding": 4824, "prehistoric": 14491, "fool": 7966, "##\u0f63": 29971, "emissions": 11768, "[unused14]": 15, "lyon": 10241, "sweet": 4086, "awareness": 7073, "index": 5950, "veteran": 8003, "yearning": 29479, "ieee": 15368, "1682": 29478, "tolerate": 19242, "##nus": 10182, "inspect": 22459, "firearm": 23646, "##\u0e1e": 29950, "##words": 22104, "[unused63]": 64, "##ery": 7301, "christoph": 21428, "chanting": 22417, "tackled": 26176, "supervisory": 26653, "ludwig": 10302, "complaints": 10821, "##\u301c": 30171, "[unused475]": 480, "independent": 2981, "##bble": 11362, "mated": 28795, "rescued": 10148, "banners": 23562, "##hos": 15006, "##tv": 9189, "stops": 6762, "tobago": 17247, "dry": 4318, "spur": 12996, "feminine": 12320, "environment": 4044, "##mur": 20136, "475": 28245, "##aria": 10980, "our": 2256, "thereof": 21739, "existence": 4598, "critically": 11321, "syndrome": 8715, "canucks": 26177, "what": 2054, "activate": 20544, "[unused94]": 95, "crying": 6933, "malmo": 23643, "##elling": 23918, "widen": 21255, "1958": 3845, "stage": 2754, "##\u2080": 17110, "wwe": 11700, "[unused334]": 339, "interned": 26345, "qualifications": 15644, "guarding": 17019, "1877": 7557, "don": 2123, "cursing": 19752, "ebook": 26885, "inflated": 29561, "digest": 17886, "opinions": 10740, "melinda": 23721, "edict": 24754, "27th": 15045, "rays": 9938, "##sma": 26212, "heal": 11005, "\u0440": 1195, "induction": 15946, "peppers": 23582, "stumbling": 19730, "corrections": 20983, "bookstore": 21785, "blaming": 24114, "launched": 3390, "valve": 10764, "fails": 11896, "[unused611]": 616, "nantes": 25387, "aback": 26575, "difficult": 3697, "##drive": 23663, "fluttering": 25001, "coaching": 7748, "accomplish": 14570, "streetcar": 21420, "[unused147]": 152, "[unused376]": 381, "previously": 3130, "capitalism": 16498, "pixel": 22138, "knights": 7307, "troll": 18792, "1879": 7449, "##haya": 26115, "##chua": 26200, "[unused646]": 651, "jets": 9924, "punta": 27377, "##terol": 27833, "spice": 17688, "minerva": 27383, "##hua": 14691, "calling": 4214, "steven": 7112, "swallow": 10577, "violinist": 16609, "boundary": 6192, "mazda": 25286, "foraging": 26912, "##ats": 11149, "##powered": 27267, "editorial": 8368, "remy": 22712, "westminster": 9434, "##ood": 17139, "stabbing": 21690, "campuses": 13696, "toulon": 27160, "117": 12567, "remainder": 6893, "actively": 8851, "webber": 19861, "329": 29567, "pursue": 7323, "266": 25162, "bromwich": 27888, "mauritius": 18004, "1964": 3546, "old": 2214, "hit": 2718, "1679": 27924, "##uating": 24133, "[unused281]": 286, "captures": 19566, "sandra": 12834, "groups": 2967, "##joy": 24793, "##ingly": 15787, "geoff": 14915, "\u2014": 1517, "candles": 14006, "##ering": 7999, "##dden": 17101, "byzantine": 8734, "##clusive": 23633, "incredibly": 11757, "emirates": 14041, "##onzo": 29452, "delightful": 26380, "kingston": 9803, "somehow": 5064, "francisco": 3799, "longtime": 11155, "connor": 6720, "fuel": 4762, "bedside": 19475, "tend": 7166, "soprano": 10430, "ashok": 28916, "##ically": 15004, "origin": 4761, "arden": 26225, "still": 2145, "gone": 2908, "carpenter": 10533, "canary": 17154, "interviewed": 10263, "##cen": 27524, "feeder": 21429, "precious": 9062, "retirement": 5075, "sniffed": 18013, "presbyterian": 10133, "gaga": 23332, "textbook": 16432, "economically": 15318, "##vision": 17084, "repairs": 10315, "shot": 2915, "socially": 14286, "rematch": 18229, "sweetly": 22557, "[unused738]": 743, "delays": 14350, "##titles": 27430, "\u02e2": 1152, "controversial": 6801, "challenging": 10368, "wildly": 13544, "outlaw": 19104, "nashville": 8423, "null": 19701, "generous": 12382, "##phobic": 20200, "##iner": 26455, "project": 2622, "##\u2095": 30093, "successes": 14152, "cricketer": 9490, "machinery": 10394, "tread": 29449, "[unused100]": 105, "earned": 3687, "relaxation": 23370, "nightingale": 21771, "condo": 25805, "\u0b9a": 1383, "mutually": 20271, "##smith": 21405, "vans": 21994, "leadership": 4105, "ortega": 25859, "##gement": 20511, "fact": 2755, "##mour": 20360, "mackenzie": 11407, "default": 12398, "eduard": 20424, "hasn": 8440, "polished": 12853, "toppled": 27251, "assassination": 10102, "##bes": 12681, "cited": 6563, "##tl": 19646, "smyth": 28103, "\u661f": 1866, "epidemic": 16311, "preservation": 8347, "constrained": 27570, "capcom": 26861, "tae": 22297, "spun": 7455, "wandered": 13289, "ceilings": 21098, "1641": 25702, "variation": 8386, "spaces": 7258, "crossroads": 16760, "increased": 3445, "tales": 7122, "allison": 10786, "[unused826]": 831, "pauline": 15595, "##\u2286": 30138, "tiny": 4714, "footing": 22849, "##bra": 10024, "commodore": 12957, "[unused410]": 415, "##date": 13701, "##ease": 19500, "peacefully": 21614, "mozart": 13177, "ring": 3614, "recommended": 6749, "moral": 7191, "1807": 13206, "sling": 27076, "investigated": 10847, "##ann": 11639, "bentley": 15988, "##jana": 18803, "##pkins": 29531, "for": 2005, "concurrently": 15442, "hector": 10590, "1994": 2807, "terrorism": 10130, "state": 2110, "limp": 14401, "rhapsody": 29395, "murders": 9916, "medalist": 12968, "##bol": 14956, "rna": 12987, "55th": 29075, "##ciful": 26336, "desert": 5532, "cory": 18342, "finding": 4531, "shark": 11420, "marjorie": 21562, "##\u0131": 11722, "\u30db": 1722, "garlic": 20548, "synthesizer": 13564, "bending": 14457, "greet": 17021, "buffet": 28305, "robbers": 28019, "##idae": 6096, "1798": 13036, "rivera": 14043, "strong": 2844, "sarcastic": 22473, "##national": 25434, "berth": 17064, "##oma": 9626, "##iga": 13340, "urine": 17996, "behalf": 6852, "##du": 8566, "shire": 13182, "distribution": 4353, "##\u90ce": 30484, "supervisor": 12366, "through": 2083, "[unused516]": 521, "napoli": 29485, "##\u0926": 29861, "precisely": 10785, "operatic": 22534, "elise": 14251, "##vious": 24918, "ind": 27427, "chatham": 16727, "##phic": 17926, "forearm": 16148, "constructions": 21913, "forks": 19896, "liberals": 13350, "\u00a7": 1073, "sloan": 19024, "recapture": 27639, "##itate": 17570, "[unused427]": 432, "thom": 19438, "alto": 10766, "locally": 7246, "[unused696]": 701, "mascot": 13314, "tre": 29461, "heron": 22914, "##\u208a": 30086, "luce": 19913, "balfour": 27560, "##kumar": 18494, "padua": 24941, "##holder": 14528, "##xon": 22500, "toned": 27604, "##\u3042": 30172, "zaragoza": 25744, "shaded": 25273, "zimbabwe": 11399, "##ulia": 20922, "judy": 12120, "##witz": 15362, "##eau": 10207, "##ze": 4371, "beauty": 5053, "contender": 20127, "##ening": 7406, "erich": 17513, "britain": 3725, "contention": 18974, "monograph": 24039, "##fast": 24333, "##ttle": 26328, "##lo": 4135, "##kura": 28260, "charles": 2798, "disappear": 10436, "304": 23859, "##nzo": 25650, "pondered": 28347, "[unused436]": 441, "painted": 4993, "psychotic": 27756, "unpaid": 23850, "##wa": 4213, "neighboring": 8581, "compete": 5566, "##tam": 15464, "##nikov": 22576, "insulation": 25710, "thought": 2245, "saxony": 13019, "buren": 29470, "##pi": 8197, "franciscan": 19420, "walden": 24834, "moderator": 29420, "##\u09a1": 29896, "miles": 2661, "336": 27954, "thyroid": 29610, "valor": 27314, "deafening": 28840, "strap": 16195, "simulations": 24710, "prevented": 8729, "[unused160]": 165, "western": 2530, "fertility": 17376, "skate": 17260, "\u30b9": 1707, "##marks": 27373, "##illon": 20343, "##\u5ddd": 30361, "##\u706b": 30432, "meiji": 23214, "##mite": 23419, "##\u4e09": 30267, "saturn": 14784, "lucy": 7004, "##nall": 22270, "commune": 5715, "plans": 3488, "armored": 10612, "exodus": 16388, "settler": 18556, "costs": 5366, "##cier": 19562, "##\u0575": 29777, "beatles": 11555, "albion": 13392, "traction": 16493, "unitary": 22127, "laude": 21602, "napoleon": 8891, "clicked": 13886, "##ons": 5644, "carol": 8594, "commendation": 23039, "obsidian": 29042, "555": 29541, "ridges": 16386, "consonants": 19694, "radha": 26498, "imposing": 16625, "refers": 5218, "ionic": 24774, "blend": 12586, "rajasthan": 16815, "bones": 5944, "compound": 7328, "eggs": 6763, "##lts": 21593, "##ug": 15916, "mistakes": 12051, "swamps": 22722, "tsar": 17608, "fulfillment": 29362, "relentless": 21660, "cancer": 4456, "vigor": 24474, "carefully": 5362, "[unused114]": 119, "targeted": 9416, "talents": 11725, "##uted": 12926, "problem": 3291, "##graphy": 12565, "debbie": 16391, "contempt": 17152, "juno": 20788, "duets": 29410, "##:": 29627, "senate": 4001, "##uru": 14129, "##tein": 9589, "maya": 9815, "intercontinental": 18725, "preserving": 15224, "irony": 19728, "##ctable": 23576, "cohen": 9946, "[unused692]": 697, "capitalist": 19640, "\u1102": 1456, "##esis": 19009, "courtney": 14139, "gables": 27008, "procedures": 8853, "carlson": 22226, "herb": 12810, "action": 2895, "opium": 21075, "##flower": 14156, "mechanical": 6228, "##owe": 29385, "##\u9234": 30491, "[unused707]": 712, "lynch": 11404, "paz": 18183, "alexander": 3656, "rest": 2717, "##hom": 23393, "930": 29359, "donate": 21357, "minimal": 10124, "psychiatrist": 18146, "proximity": 10039, "treasures": 17605, "raised": 2992, "instantly": 6880, "##lor": 10626, "workout": 27090, "doubts": 13579, "warriors": 6424, "weed": 17901, "repertory": 21099, "haunted": 11171, "peninsular": 22682, "oilers": 19778, "\u6b4c": 1886, "##\u10e2": 29989, "founders": 8759, "duration": 9367, "\u203f": 1534, "bonded": 20886, "genes": 9165, "##bl": 16558, "electrons": 15057, "done": 2589, "account": 4070, "marking": 10060, "daisy": 10409, "denounced": 17787, "connector": 19400, "fee": 7408, "temperate": 16868, "appliances": 22449, "chilly": 24222, "si": 9033, "[unused468]": 473, "knot": 12226, "ghanaian": 27202, "1788": 15622, "1704": 27769, "jail": 7173, "adjoining": 13562, "buildings": 3121, "potomac": 18854, "croatian": 7963, "650": 13757, "##roved": 26251, "changes": 3431, "belize": 18867, "lent": 15307, "rammed": 27653, "knees": 5042, "cervical": 28711, "##zhi": 19436, "##inski": 19880, "##holding": 23410, "conclusion": 7091, "##growth": 26982, "adoption": 9886, "\u092c": 1329, "1990": 2901, "harrington": 19760, "subterranean": 28811, "clergy": 11646, "terminate": 20320, "adelaide": 7364, "advocacy": 12288,
[...]
